{
  "version": "1.0",
  "truncation": null,
  "padding": null,
  "added_tokens": [
    {
      "id": 0,
      "content": "[UNK]",
      "single_word": false,
      "lstrip": false,
      "rstrip": false,
      "normalized": false,
      "special": true
    },
    {
      "id": 1,
      "content": "[CLS]",
      "single_word": false,
      "lstrip": false,
      "rstrip": false,
      "normalized": false,
      "special": true
    },
    {
      "id": 2,
      "content": "[SEP]",
      "single_word": false,
      "lstrip": false,
      "rstrip": false,
      "normalized": false,
      "special": true
    },
    {
      "id": 3,
      "content": "[PAD]",
      "single_word": false,
      "lstrip": false,
      "rstrip": false,
      "normalized": false,
      "special": true
    },
    {
      "id": 4,
      "content": "[MASK]",
      "single_word": false,
      "lstrip": false,
      "rstrip": false,
      "normalized": false,
      "special": true
    }
  ],
  "normalizer": null,
  "pre_tokenizer": {
    "type": "Whitespace"
  },
  "post_processor": null,
  "decoder": null,
  "model": {
    "type": "BPE",
    "dropout": null,
    "unk_token": "[UNK]",
    "continuing_subword_prefix": null,
    "end_of_word_suffix": null,
    "fuse_unk": false,
    "byte_fallback": false,
    "vocab": {
      "[UNK]": 0,
      "[CLS]": 1,
      "[SEP]": 2,
      "[PAD]": 3,
      "[MASK]": 4,
      "!": 5,
      "\"": 6,
      "#": 7,
      "$": 8,
      "%": 9,
      "&": 10,
      "'": 11,
      "(": 12,
      ")": 13,
      "*": 14,
      "+": 15,
      ",": 16,
      "-": 17,
      ".": 18,
      "/": 19,
      "0": 20,
      "1": 21,
      "2": 22,
      "3": 23,
      "4": 24,
      "5": 25,
      "6": 26,
      "7": 27,
      "8": 28,
      "9": 29,
      ":": 30,
      ";": 31,
      "=": 32,
      "?": 33,
      "@": 34,
      "A": 35,
      "B": 36,
      "C": 37,
      "D": 38,
      "E": 39,
      "F": 40,
      "G": 41,
      "H": 42,
      "I": 43,
      "J": 44,
      "K": 45,
      "L": 46,
      "M": 47,
      "N": 48,
      "O": 49,
      "P": 50,
      "Q": 51,
      "R": 52,
      "S": 53,
      "T": 54,
      "U": 55,
      "V": 56,
      "W": 57,
      "X": 58,
      "Y": 59,
      "Z": 60,
      "[": 61,
      "]": 62,
      "^": 63,
      "_": 64,
      "`": 65,
      "a": 66,
      "b": 67,
      "c": 68,
      "d": 69,
      "e": 70,
      "f": 71,
      "g": 72,
      "h": 73,
      "i": 74,
      "j": 75,
      "k": 76,
      "l": 77,
      "m": 78,
      "n": 79,
      "o": 80,
      "p": 81,
      "q": 82,
      "r": 83,
      "s": 84,
      "t": 85,
      "u": 86,
      "v": 87,
      "w": 88,
      "x": 89,
      "y": 90,
      "z": 91,
      "": 92,
      "": 93,
      "": 94,
      "": 95,
      "": 96,
      "": 97,
      "¡": 98,
      "£": 99,
      "¥": 100,
      "©": 101,
      "«": 102,
      "­": 103,
      "®": 104,
      "°": 105,
      "²": 106,
      "³": 107,
      "´": 108,
      "¶": 109,
      "º": 110,
      "»": 111,
      "¼": 112,
      "½": 113,
      "¾": 114,
      "Á": 115,
      "Ä": 116,
      "Å": 117,
      "Ç": 118,
      "É": 119,
      "Ö": 120,
      "×": 121,
      "Ü": 122,
      "ß": 123,
      "à": 124,
      "á": 125,
      "â": 126,
      "ã": 127,
      "ä": 128,
      "ç": 129,
      "è": 130,
      "é": 131,
      "ê": 132,
      "ë": 133,
      "í": 134,
      "ï": 135,
      "ñ": 136,
      "ò": 137,
      "ó": 138,
      "ô": 139,
      "ö": 140,
      "ø": 141,
      "ù": 142,
      "ú": 143,
      "û": 144,
      "ü": 145,
      "ý": 146,
      "ā": 147,
      "ć": 148,
      "Č": 149,
      "ē": 150,
      "ě": 151,
      "ī": 152,
      "œ": 153,
      "š": 154,
      "ū": 155,
      "Ű": 156,
      "β": 157,
      "τ": 158,
      "к": 159,
      "Ӓ": 160,
      "ย": 161,
      "ร": 162,
      "อ": 163,
      "่": 164,
      "‌": 165,
      "‒": 166,
      "–": 167,
      "—": 168,
      "‘": 169,
      "’": 170,
      "‚": 171,
      "“": 172,
      "”": 173,
      "„": 174,
      "‟": 175,
      "…": 176,
      "‹": 177,
      "›": 178,
      "€": 179,
      "™": 180,
      "∇": 181,
      "♪": 182,
      "♫": 183,
      "你": 184,
      "葱": 185,
      "送": 186,
      "﻿": 187,
      "，": 188,
      "en": 189,
      "er": 190,
      "in": 191,
      "ch": 192,
      "th": 193,
      "an": 194,
      "ie": 195,
      "st": 196,
      "at": 197,
      "on": 198,
      "un": 199,
      "es": 200,
      "al": 201,
      "as": 202,
      "it": 203,
      "re": 204,
      "the": 205,
      "ich": 206,
      "is": 207,
      "ein": 208,
      "or": 209,
      "ou": 210,
      "ar": 211,
      "le": 212,
      "ing": 213,
      "to": 214,
      "and": 215,
      "se": 216,
      "au": 217,
      "die": 218,
      "te": 219,
      "be": 220,
      "ge": 221,
      "der": 222,
      "ir": 223,
      "of": 224,
      "und": 225,
      "de": 226,
      "om": 227,
      "we": 228,
      "ll": 229,
      "ig": 230,
      "den": 231,
      "ist": 232,
      "das": 233,
      "ver": 234,
      "zu": 235,
      "ab": 236,
      "ion": 237,
      "that": 238,
      "sch": 239,
      "ro": 240,
      "ve": 241,
      "nd": 242,
      "ent": 243,
      "ere": 244,
      "he": 245,
      "im": 246,
      "so": 247,
      "ic": 248,
      "all": 249,
      "am": 250,
      "ten": 251,
      "you": 252,
      "wh": 253,
      "ur": 254,
      "gen": 255,
      "no": 256,
      "ke": 257,
      "hr": 258,
      "ut": 259,
      "wir": 260,
      "il": 261,
      "ach": 262,
      "eine": 263,
      "ha": 264,
      "ter": 265,
      "ne": 266,
      "icht": 267,
      "lo": 268,
      "ier": 269,
      "was": 270,
      "ac": 271,
      "ed": 272,
      "lich": 273,
      "um": 274,
      "me": 275,
      "ber": 276,
      "us": 277,
      "ung": 278,
      "for": 279,
      "ay": 280,
      "tr": 281,
      "ind": 282,
      "And": 283,
      "ld": 284,
      "ste": 285,
      "sen": 286,
      "sie": 287,
      "this": 288,
      "ag": 289,
      "pe": 290,
      "Sie": 291,
      "if": 292,
      "ow": 293,
      "auf": 294,
      "wi": 295,
      "nen": 296,
      "ür": 297,
      "von": 298,
      "et": 299,
      "are": 300,
      "out": 301,
      "nicht": 302,
      "ol": 303,
      "mo": 304,
      "el": 305,
      "ben": 306,
      "ation": 307,
      "dass": 308,
      "go": 309,
      "--": 310,
      "do": 311,
      "ht": 312,
      "war": 313,
      "op": 314,
      "mit": 315,
      "ly": 316,
      "fr": 317,
      "ann": 318,
      "hat": 319,
      "Und": 320,
      "id": 321,
      "hen": 322,
      "man": 323,
      "aus": 324,
      "wie": 325,
      "men": 326,
      "ad": 327,
      "li": 328,
      "ess": 329,
      "ce": 330,
      "wor": 331,
      "ome": 332,
      "ally": 333,
      "af": 334,
      "one": 335,
      "uns": 336,
      "sp": 337,
      "isch": 338,
      "have": 339,
      "per": 340,
      "with": 341,
      "kt": 342,
      "So": 343,
      "ze": 344,
      "ul": 345,
      "our": 346,
      "they": 347,
      "sich": 348,
      "enn": 349,
      "wer": 350,
      "pro": 351,
      "can": 352,
      "We": 353,
      "Ich": 354,
      "als": 355,
      "thing": 356,
      "iel": 357,
      "ant": 358,
      "ct": 359,
      "ust": 360,
      "aben": 361,
      "br": 362,
      "ex": 363,
      "con": 364,
      "ck": 365,
      "gr": 366,
      "what": 367,
      "sind": 368,
      "ma": 369,
      "über": 370,
      "ther": 371,
      "In": 372,
      "fe": 373,
      "very": 374,
      "ön": 375,
      "haben": 376,
      "dem": 377,
      "ib": 378,
      "now": 379,
      "The": 380,
      "wo": 381,
      "ould": 382,
      "für": 383,
      "einen": 384,
      "pl": 385,
      "uch": 386,
      "des": 387,
      "about": 388,
      "her": 389,
      "diese": 390,
      "act": 391,
      "com": 392,
      "ese": 393,
      "ies": 394,
      "not": 395,
      "00": 396,
      "art": 397,
      "ien": 398,
      "pr": 399,
      "ap": 400,
      "Th": 401,
      "up": 402,
      "ill": 403,
      "od": 404,
      "sa": 405,
      "ahr": 406,
      "Le": 407,
      "mer": 408,
      "my": 409,
      "ive": 410,
      "Das": 411,
      "hl": 412,
      "kön": 413,
      "St": 414,
      "Be": 415,
      "ight": 416,
      "Ge": 417,
      "dies": 418,
      "Es": 419,
      "ate": 420,
      "iv": 421,
      "Sch": 422,
      "ik": 423,
      "Wir": 424,
      "some": 425,
      "there": 426,
      "qu": 427,
      "ort": 428,
      "co": 429,
      "ok": 430,
      "je": 431,
      "like": 432,
      "einer": 433,
      "auch": 434,
      "ain": 435,
      "It": 436,
      "vor": 437,
      "po": 438,
      "ople": 439,
      ".\"": 440,
      "ink": 441,
      "igen": 442,
      "sh": 443,
      "ide": 444,
      "Er": 445,
      "än": 446,
      "age": 447,
      "ity": 448,
      "people": 449,
      "ast": 450,
      "sel": 451,
      "ine": 452,
      "from": 453,
      "ute": 454,
      "mach": 455,
      "esch": 456,
      "ern": 457,
      "get": 458,
      "ause": 459,
      "ure": 460,
      "llen": 461,
      "da": 462,
      "gan": 463,
      "also": 464,
      "Ver": 465,
      "ken": 466,
      "way": 467,
      "wenn": 468,
      "but": 469,
      "Die": 470,
      "einem": 471,
      "ass": 472,
      "ieren": 473,
      "dr": 474,
      "ih": 475,
      "know": 476,
      "zen": 477,
      "Ar": 478,
      "ts": 479,
      "them": 480,
      "just": 481,
      "ear": 482,
      "An": 483,
      "cause": 484,
      "lie": 485,
      "fen": 486,
      "bo": 487,
      "kann": 488,
      "schen": 489,
      "können": 490,
      "Men": 491,
      "Pro": 492,
      "werden": 493,
      "ers": 494,
      "fo": 495,
      "oder": 496,
      "ang": 497,
      "kom": 498,
      "ungen": 499,
      "sten": 500,
      "oug": 501,
      "these": 502,
      "But": 503,
      "schaf": 504,
      "hal": 505,
      "ite": 506,
      "iert": 507,
      "kl": 508,
      "tim": 509,
      "think": 510,
      "alle": 511,
      "by": 512,
      "who": 513,
      "Al": 514,
      "Re": 515,
      "log": 516,
      "see": 517,
      "ah": 518,
      "ment": 519,
      "ige": 520,
      "ted": 521,
      "aber": 522,
      "fü": 523,
      "du": 524,
      "fer": 525,
      "going": 526,
      "ob": 527,
      "ble": 528,
      "year": 529,
      "ame": 530,
      "end": 531,
      "nach": 532,
      "Un": 533,
      "str": 534,
      "Aber": 535,
      "ack": 536,
      "had": 537,
      "more": 538,
      "other": 539,
      "dar": 540,
      "when": 541,
      "ple": 542,
      "viel": 543,
      "ger": 544,
      "ibt": 545,
      "your": 546,
      "nur": 547,
      "ho": 548,
      "zt": 549,
      "ät": 550,
      "because": 551,
      "bei": 552,
      "ial": 553,
      "uf": 554,
      "will": 555,
      "ans": 556,
      "Te": 557,
      "gro": 558,
      "wird": 559,
      "sehr": 560,
      "iz": 561,
      "Fr": 562,
      "would": 563,
      "mal": 564,
      "fin": 565,
      "hier": 566,
      "how": 567,
      "ta": 568,
      "Menschen": 569,
      "chen": 570,
      "ue": 571,
      "ischen": 572,
      "ank": 573,
      "were": 574,
      "ör": 575,
      "elt": 576,
      "here": 577,
      "urch": 578,
      "sehen": 579,
      "sein": 580,
      "which": 581,
      "ise": 582,
      "work": 583,
      "pen": 584,
      "ild": 585,
      "hin": 586,
      "En": 587,
      "mich": 588,
      "their": 589,
      "gibt": 590,
      "really": 591,
      "ous": 592,
      "ange": 593,
      "che": 594,
      "keit": 595,
      "ually": 596,
      "itt": 597,
      "wur": 598,
      "ück": 599,
      "cre": 600,
      "issen": 601,
      "mus": 602,
      "vers": 603,
      "gl": 604,
      "has": 605,
      "Gr": 606,
      "Jahr": 607,
      "son": 608,
      "under": 609,
      "Ze": 610,
      "dann": 611,
      "sy": 612,
      "ug": 613,
      "ace": 614,
      "You": 615,
      "where": 616,
      "put": 617,
      "time": 618,
      "ip": 619,
      "don": 620,
      "ven": 621,
      "let": 622,
      "wä": 623,
      "Ih": 624,
      "noch": 625,
      "dern": 626,
      "ater": 627,
      "look": 628,
      "ot": 629,
      "world": 630,
      "ander": 631,
      "heit": 632,
      "day": 633,
      "able": 634,
      "then": 635,
      "form": 636,
      "bl": 637,
      "This": 638,
      "ihr": 639,
      "etwas": 640,
      "use": 641,
      "unter": 642,
      "ions": 643,
      "ft": 644,
      "mir": 645,
      "own": 646,
      "any": 647,
      "habe": 648,
      "mö": 649,
      "ough": 650,
      "hap": 651,
      "fl": 652,
      "into": 653,
      "every": 654,
      "Ein": 655,
      "äch": 656,
      "mehr": 657,
      "weit": 658,
      "ign": 659,
      "Welt": 660,
      "say": 661,
      "actually": 662,
      "zur": 663,
      "could": 664,
      "dieser": 665,
      "want": 666,
      "durch": 667,
      "ia": 668,
      "ss": 669,
      "schaft": 670,
      "wei": 671,
      "beit": 672,
      "stand": 673,
      "ard": 674,
      "ische": 675,
      "sc": 676,
      "sag": 677,
      "ose": 678,
      "cent": 679,
      "ges": 680,
      "inn": 681,
      "inter": 682,
      "years": 683,
      "pt": 684,
      "Se": 685,
      "things": 686,
      "int": 687,
      "hn": 688,
      "lichen": 689,
      "did": 690,
      "Wenn": 691,
      "Now": 692,
      "vie": 693,
      "ak": 694,
      "mein": 695,
      "gre": 696,
      "liche": 697,
      "Leben": 698,
      "He": 699,
      "ty": 700,
      "been": 701,
      "pa": 702,
      "wirk": 703,
      "auen": 704,
      "They": 705,
      "ice": 706,
      "dif": 707,
      "spe": 708,
      "immer": 709,
      "lt": 710,
      "alk": 711,
      "part": 712,
      "sam": 713,
      "wür": 714,
      "ick": 715,
      "stem": 716,
      "blem": 717,
      "make": 718,
      "ical": 719,
      "bu": 720,
      "ong": 721,
      "Zeit": 722,
      "unser": 723,
      "gel": 724,
      "cl": 725,
      "kon": 726,
      "over": 727,
      "cr": 728,
      "right": 729,
      "rei": 730,
      "pre": 731,
      "tun": 732,
      "io": 733,
      "fach": 734,
      "machen": 735,
      "new": 736,
      "most": 737,
      "ife": 738,
      "ult": 739,
      "zum": 740,
      "wurde": 741,
      "back": 742,
      "üs": 743,
      "etzt": 744,
      "than": 745,
      "said": 746,
      "unsere": 747,
      "fir": 748,
      "bet": 749,
      "off": 750,
      "su": 751,
      "ph": 752,
      "res": 753,
      "ßen": 754,
      "Ihnen": 755,
      "kommen": 756,
      "come": 757,
      "got": 758,
      "ory": 759,
      "stell": 760,
      "ree": 761,
      "try": 762,
      "bin": 763,
      "agen": 764,
      "ire": 765,
      "wen": 766,
      "port": 767,
      "something": 768,
      "ds": 769,
      "ked": 770,
      "its": 771,
      "weil": 772,
      "ile": 773,
      "ated": 774,
      "assen": 775,
      "mt": 776,
      "ser": 777,
      "chno": 778,
      "two": 779,
      "aten": 780,
      "illion": 781,
      "meine": 782,
      "ient": 783,
      "iden": 784,
      "Gesch": 785,
      "einfach": 786,
      "wirklich": 787,
      "chnolog": 788,
      "Ding": 789,
      "kind": 790,
      "ihre": 791,
      "Ne": 792,
      "much": 793,
      "star": 794,
      "bst": 795,
      "000": 796,
      "differ": 797,
      "net": 798,
      "dam": 799,
      "sol": 800,
      "those": 801,
      "need": 802,
      "first": 803,
      "Was": 804,
      "gle": 805,
      "litt": 806,
      "she": 807,
      "wissen": 808,
      "ys": 809,
      "tell": 810,
      "ungs": 811,
      "Also": 812,
      "little": 813,
      "ün": 814,
      "oll": 815,
      "bar": 816,
      "hand": 817,
      "Or": 818,
      "?\"": 819,
      "em": 820,
      "eing": 821,
      "rie": 822,
      "ins": 823,
      "sagen": 824,
      "dis": 825,
      "ves": 826,
      "That": 827,
      "iger": 828,
      "bring": 829,
      "Vor": 830,
      "neh": 831,
      "real": 832,
      "bis": 833,
      "set": 834,
      "gt": 835,
      "hatte": 836,
      "life": 837,
      "müs": 838,
      "tre": 839,
      "happen": 840,
      "schie": 841,
      "zie": 842,
      "nte": 843,
      "ats": 844,
      "dieses": 845,
      "pass": 846,
      "20": 847,
      "eines": 848,
      "ud": 849,
      "ody": 850,
      "ert": 851,
      "ving": 852,
      "chte": 853,
      "only": 854,
      "hlen": 855,
      "isten": 856,
      "gesch": 857,
      "är": 858,
      "nat": 859,
      "vol": 860,
      "glich": 861,
      "keine": 862,
      "ound": 863,
      "piel": 864,
      "What": 865,
      "est": 866,
      "Man": 867,
      "ition": 868,
      "att": 869,
      "Leute": 870,
      "hum": 871,
      "ade": 872,
      "his": 873,
      "lot": 874,
      "tel": 875,
      "ktion": 876,
      "ase": 877,
      "system": 878,
      "waren": 879,
      "fä": 880,
      "macht": 881,
      "müssen": 882,
      "ance": 883,
      "ations": 884,
      "thr": 885,
      "even": 886,
      "acht": 887,
      "19": 888,
      "lear": 889,
      "body": 890,
      "os": 891,
      "many": 892,
      "viele": 893,
      "aut": 894,
      "Art": 895,
      "..": 896,
      "mar": 897,
      "leicht": 898,
      "diesem": 899,
      "take": 900,
      "soll": 901,
      "hig": 902,
      "geb": 903,
      "down": 904,
      "different": 905,
      "talk": 906,
      "wa": 907,
      "10": 908,
      "sagte": 909,
      "lang": 910,
      "beg": 911,
      "groß": 912,
      "Dinge": 913,
      "ler": 914,
      "self": 915,
      "gehen": 916,
      "stellen": 917,
      "Wie": 918,
      "ichte": 919,
      "good": 920,
      "diesen": 921,
      "andere": 922,
      "fore": 923,
      "Jahren": 924,
      "unden": 925,
      "teil": 926,
      "does": 927,
      "par": 928,
      "gew": 929,
      "hör": 930,
      "For": 931,
      "There": 932,
      "cht": 933,
      "ra": 934,
      "hel": 935,
      "erst": 936,
      "through": 937,
      "such": 938,
      "halten": 939,
      "Au": 940,
      "around": 941,
      "Kon": 942,
      "ting": 943,
      "geben": 944,
      "Aus": 945,
      "gu": 946,
      "erg": 947,
      "coun": 948,
      "gut": 949,
      "zwei": 950,
      "mon": 951,
      "tro": 952,
      "Me": 953,
      "tur": 954,
      "führ": 955,
      "ichtig": 956,
      "ff": 957,
      "bre": 958,
      "glau": 959,
      "arbeit": 960,
      "nie": 961,
      "gar": 962,
      "ale": 963,
      "anderen": 964,
      "ution": 965,
      "wieder": 966,
      "jetzt": 967,
      "same": 968,
      "being": 969,
      "stehen": 970,
      "Kin": 971,
      "ought": 972,
      "ish": 973,
      "king": 974,
      "min": 975,
      "ahre": 976,
      "nehmen": 977,
      "bes": 978,
      "land": 979,
      "brauch": 980,
      "cess": 981,
      "kr": 982,
      "würde": 983,
      "ster": 984,
      "ible": 985,
      "ience": 986,
      "Unter": 987,
      "geht": 988,
      "find": 989,
      "ors": 990,
      "gleich": 991,
      "lau": 992,
      "Tr": 993,
      "problem": 994,
      "Inter": 995,
      "finden": 996,
      "iss": 997,
      "alles": 998,
      "Auf": 999,
      "Der": 1000,
      "med": 1001,
      "ner": 1002,
      "car": 1003,
      "ious": 1004,
      "fol": 1005,
      "Dies": 1006,
      "wic": 1007,
      "fun": 1008,
      "mand": 1009,
      "ität": 1010,
      "ep": 1011,
      "alt": 1012,
      "ating": 1013,
      "aum": 1014,
      "Well": 1015,
      "produ": 1016,
      "change": 1017,
      "selbst": 1018,
      "ary": 1019,
      "aw": 1020,
      "damit": 1021,
      "weiter": 1022,
      "fact": 1023,
      "read": 1024,
      "big": 1025,
      "bit": 1026,
      "ian": 1027,
      "ful": 1028,
      "nis": 1029,
      "ual": 1030,
      "Str": 1031,
      "leben": 1032,
      "Br": 1033,
      "Pl": 1034,
      "fa": 1035,
      "det": 1036,
      "amil": 1037,
      "gend": 1038,
      "igt": 1039,
      "sur": 1040,
      "pol": 1041,
      "Ent": 1042,
      "best": 1043,
      "led": 1044,
      "Jahre": 1045,
      "änder": 1046,
      "ction": 1047,
      "formation": 1048,
      "human": 1049,
      "If": 1050,
      "xt": 1051,
      "sit": 1052,
      "mun": 1053,
      "tet": 1054,
      "doing": 1055,
      "ens": 1056,
      "bas": 1057,
      "denken": 1058,
      "Zu": 1059,
      "rel": 1060,
      "well": 1061,
      "allen": 1062,
      "may": 1063,
      "50": 1064,
      "Mit": 1065,
      "ache": 1066,
      "show": 1067,
      "kam": 1068,
      "three": 1069,
      "oh": 1070,
      "zurück": 1071,
      "ject": 1072,
      "Kr": 1073,
      "ces": 1074,
      "alled": 1075,
      "bal": 1076,
      "ord": 1077,
      "start": 1078,
      "dec": 1079,
      "fahr": 1080,
      "sche": 1081,
      "ically": 1082,
      "zent": 1083,
      "genau": 1084,
      "muss": 1085,
      "build": 1086,
      "gest": 1087,
      "wel": 1088,
      "erz": 1089,
      "sim": 1090,
      "ved": 1091,
      "tern": 1092,
      "los": 1093,
      "schl": 1094,
      "omen": 1095,
      "ize": 1096,
      "technolog": 1097,
      "called": 1098,
      "Um": 1099,
      "spr": 1100,
      "soc": 1101,
      "Mo": 1102,
      "kel": 1103,
      "percent": 1104,
      "ele": 1105,
      "ons": 1106,
      "ways": 1107,
      "Ind": 1108,
      "cour": 1109,
      "olle": 1110,
      "Pr": 1111,
      "exper": 1112,
      "bess": 1113,
      "ned": 1114,
      "ates": 1115,
      "Amer": 1116,
      "ivers": 1117,
      "quest": 1118,
      "Ges": 1119,
      "ics": 1120,
      "uss": 1121,
      "came": 1122,
      "öß": 1123,
      "ächlich": 1124,
      "schon": 1125,
      "heraus": 1126,
      "denn": 1127,
      "ict": 1128,
      "neu": 1129,
      "möchte": 1130,
      "hy": 1131,
      "plan": 1132,
      "made": 1133,
      "ahl": 1134,
      "oment": 1135,
      "Kinder": 1136,
      "letz": 1137,
      "och": 1138,
      "arch": 1139,
      "sm": 1140,
      "again": 1141,
      "les": 1142,
      "zusam": 1143,
      "av": 1144,
      "red": 1145,
      "ging": 1146,
      "wr": 1147,
      "Nun": 1148,
      "ganz": 1149,
      "onder": 1150,
      "play": 1151,
      "vielleicht": 1152,
      "angen": 1153,
      "ihnen": 1154,
      "Teil": 1155,
      "zusammen": 1156,
      "Fl": 1157,
      "weg": 1158,
      "Wo": 1159,
      "ms": 1160,
      "Ch": 1161,
      "nten": 1162,
      "ry": 1163,
      "üt": 1164,
      "uck": 1165,
      "az": 1166,
      "Arbeit": 1167,
      "De": 1168,
      "vis": 1169,
      "person": 1170,
      "Ide": 1171,
      "ave": 1172,
      "denen": 1173,
      "lassen": 1174,
      "zw": 1175,
      "versuch": 1176,
      "äu": 1177,
      "bere": 1178,
      "ence": 1179,
      "Sy": 1180,
      "ever": 1181,
      "import": 1182,
      "ities": 1183,
      "Gen": 1184,
      "igkeit": 1185,
      "vent": 1186,
      "atur": 1187,
      "halb": 1188,
      "atsächlich": 1189,
      "after": 1190,
      "Afr": 1191,
      "Land": 1192,
      "why": 1193,
      "less": 1194,
      "pow": 1195,
      "davon": 1196,
      "belie": 1197,
      "last": 1198,
      "ool": 1199,
      "fu": 1200,
      "Wissen": 1201,
      "unt": 1202,
      "kommt": 1203,
      "uten": 1204,
      "ars": 1205,
      "ded": 1206,
      "All": 1207,
      "Tag": 1208,
      "ierte": 1209,
      "bt": 1210,
      "erest": 1211,
      "great": 1212,
      "Grund": 1213,
      "gram": 1214,
      "Hier": 1215,
      "ational": 1216,
      "Im": 1217,
      "Beis": 1218,
      "heute": 1219,
      "ix": 1220,
      "weise": 1221,
      "Nach": 1222,
      "ago": 1223,
      "should": 1224,
      "mat": 1225,
      "mean": 1226,
      "hatten": 1227,
      "Geschichte": 1228,
      "schein": 1229,
      "today": 1230,
      "idea": 1231,
      "Thank": 1232,
      "thought": 1233,
      "vir": 1234,
      "didn": 1235,
      "feel": 1236,
      "Fre": 1237,
      "ning": 1238,
      "interest": 1239,
      "puter": 1240,
      "brain": 1241,
      "important": 1242,
      "entlich": 1243,
      "sed": 1244,
      "bs": 1245,
      "went": 1246,
      "him": 1247,
      "Bild": 1248,
      "cond": 1249,
      "wahr": 1250,
      "old": 1251,
      "könnte": 1252,
      "ihn": 1253,
      "cur": 1254,
      "eng": 1255,
      "ative": 1256,
      "achte": 1257,
      "started": 1258,
      "ular": 1259,
      "wollen": 1260,
      "ändern": 1261,
      "lle": 1262,
      "meiner": 1263,
      "200": 1264,
      "mem": 1265,
      "cho": 1266,
      "pu": 1267,
      "reich": 1268,
      "spre": 1269,
      "Diese": 1270,
      "Ihr": 1271,
      "used": 1272,
      "exam": 1273,
      "place": 1274,
      "organ": 1275,
      "einige": 1276,
      "Viel": 1277,
      "schw": 1278,
      "Bl": 1279,
      "ica": 1280,
      "pie": 1281,
      "uc": 1282,
      "drei": 1283,
      "dort": 1284,
      "kte": 1285,
      "bringen": 1286,
      "woll": 1287,
      "hä": 1288,
      "mlich": 1289,
      "paar": 1290,
      "hir": 1291,
      "pres": 1292,
      "ef": 1293,
      "light": 1294,
      "still": 1295,
      "nor": 1296,
      "größ": 1297,
      "atz": 1298,
      "power": 1299,
      "understand": 1300,
      "alth": 1301,
      "might": 1302,
      "design": 1303,
      "better": 1304,
      "give": 1305,
      "utzen": 1306,
      "help": 1307,
      "before": 1308,
      "course": 1309,
      "darüber": 1310,
      "line": 1311,
      "oren": 1312,
      "comp": 1313,
      "30": 1314,
      "anz": 1315,
      "fect": 1316,
      "wurden": 1317,
      "never": 1318,
      "low": 1319,
      "besch": 1320,
      "bab": 1321,
      "ings": 1322,
      "weiß": 1323,
      "nun": 1324,
      "ility": 1325,
      "ists": 1326,
      "iver": 1327,
      "oft": 1328,
      "werde": 1329,
      "water": 1330,
      "Her": 1331,
      "story": 1332,
      "Problem": 1333,
      "nam": 1334,
      "einz": 1335,
      "spec": 1336,
      "gab": 1337,
      "fall": 1338,
      "ital": 1339,
      "nah": 1340,
      "another": 1341,
      "long": 1342,
      "side": 1343,
      "akt": 1344,
      "äd": 1345,
      "sondern": 1346,
      "cor": 1347,
      "Com": 1348,
      "ied": 1349,
      "gegen": 1350,
      "tatsächlich": 1351,
      "kes": 1352,
      "Mon": 1353,
      "ichten": 1354,
      "Beispiel": 1355,
      "sieht": 1356,
      "lop": 1357,
      "book": 1358,
      "gether": 1359,
      "sort": 1360,
      "entwic": 1361,
      "hrend": 1362,
      "Ab": 1363,
      "pat": 1364,
      "tin": 1365,
      "kid": 1366,
      "Ex": 1367,
      "agt": 1368,
      "fre": 1369,
      "ED": 1370,
      "call": 1371,
      "ents": 1372,
      "jemand": 1373,
      "together": 1374,
      "umber": 1375,
      "sk": 1376,
      "imag": 1377,
      "Chin": 1378,
      "eigen": 1379,
      "ja": 1380,
      "school": 1381,
      "found": 1382,
      "Ihre": 1383,
      ",\"": 1384,
      "stru": 1385,
      "wus": 1386,
      "zwischen": 1387,
      "glo": 1388,
      "seine": 1389,
      "neue": 1390,
      "ürlich": 1391,
      "cy": 1392,
      "unserer": 1393,
      "next": 1394,
      "wäre": 1395,
      "mot": 1396,
      "stellt": 1397,
      "unge": 1398,
      "zeit": 1399,
      "Des": 1400,
      "Als": 1401,
      "commun": 1402,
      "poss": 1403,
      "New": 1404,
      "uden": 1405,
      "ko": 1406,
      "Kl": 1407,
      "besser": 1408,
      "far": 1409,
      "bede": 1410,
      "del": 1411,
      "Wass": 1412,
      "Ro": 1413,
      "ane": 1414,
      "mor": 1415,
      "fühl": 1416,
      "dat": 1417,
      "Gehir": 1418,
      "volution": 1419,
      "Mar": 1420,
      "ks": 1421,
      "denke": 1422,
      "gener": 1423,
      "iven": 1424,
      "top": 1425,
      "spiel": 1426,
      "few": 1427,
      "War": 1428,
      "irgend": 1429,
      "Pers": 1430,
      "ween": 1431,
      "comple": 1432,
      "point": 1433,
      "dazu": 1434,
      "technology": 1435,
      "achen": 1436,
      "achten": 1437,
      "No": 1438,
      "vom": 1439,
      "Wer": 1440,
      "aufen": 1441,
      "Geb": 1442,
      "Mal": 1443,
      "fast": 1444,
      "ited": 1445,
      "grow": 1446,
      "Bo": 1447,
      "hät": 1448,
      "änd": 1449,
      "too": 1450,
      "100": 1451,
      "When": 1452,
      "Million": 1453,
      "ely": 1454,
      "Technolog": 1455,
      "wichtig": 1456,
      "reg": 1457,
      "erzä": 1458,
      "schne": 1459,
      "cken": 1460,
      "grap": 1461,
      "gemacht": 1462,
      "Hand": 1463,
      "Ma": 1464,
      "kein": 1465,
      "voll": 1466,
      "mp": 1467,
      "number": 1468,
      "Fe": 1469,
      "each": 1470,
      "iter": 1471,
      "Med": 1472,
      "sogar": 1473,
      "between": 1474,
      "funktion": 1475,
      "ident": 1476,
      "velop": 1477,
      "leg": 1478,
      "row": 1479,
      "question": 1480,
      "air": 1481,
      "cell": 1482,
      "iness": 1483,
      "trans": 1484,
      "öff": 1485,
      "comes": 1486,
      "ket": 1487,
      "ized": 1488,
      "einmal": 1489,
      "sing": 1490,
      "turn": 1491,
      "zeigen": 1492,
      "amer": 1493,
      "Frage": 1494,
      "glaube": 1495,
      "wan": 1496,
      "ideo": 1497,
      "möglich": 1498,
      "Ok": 1499,
      "ath": 1500,
      "care": 1501,
      "gerade": 1502,
      "looking": 1503,
      "wohl": 1504,
      "four": 1505,
      "Über": 1506,
      "ren": 1507,
      "chn": 1508,
      "interess": 1509,
      "love": 1510,
      "ierung": 1511,
      "...": 1512,
      "offen": 1513,
      "imm": 1514,
      "afür": 1515,
      "Wasser": 1516,
      "dre": 1517,
      "kennen": 1518,
      "vi": 1519,
      "live": 1520,
      "sto": 1521,
      "Frauen": 1522,
      "ters": 1523,
      "arbeiten": 1524,
      "bed": 1525,
      "sprechen": 1526,
      "ub": 1527,
      "Da": 1528,
      "incre": 1529,
      "How": 1530,
      "verschie": 1531,
      "näch": 1532,
      "sha": 1533,
      "press": 1534,
      "develop": 1535,
      "sicher": 1536,
      "Because": 1537,
      "example": 1538,
      "ohne": 1539,
      "ium": 1540,
      "uro": 1541,
      "vo": 1542,
      "room": 1543,
      "Kom": 1544,
      "wegen": 1545,
      "Lebens": 1546,
      "ship": 1547,
      "letzten": 1548,
      "Gehirn": 1549,
      "TED": 1550,
      "ersten": 1551,
      "Reg": 1552,
      "betr": 1553,
      "done": 1554,
      "iten": 1555,
      "doesn": 1556,
      "ific": 1557,
      "polit": 1558,
      "amp": 1559,
      "Ph": 1560,
      "nichts": 1561,
      "inner": 1562,
      "famil": 1563,
      "move": 1564,
      "partic": 1565,
      "ika": 1566,
      "lar": 1567,
      "jeder": 1568,
      "small": 1569,
      "anc": 1570,
      "Internet": 1571,
      "dren": 1572,
      "würden": 1573,
      "gese": 1574,
      "zer": 1575,
      "phys": 1576,
      "la": 1577,
      "clo": 1578,
      "esen": 1579,
      "stre": 1580,
      "Ger": 1581,
      "äs": 1582,
      "My": 1583,
      "high": 1584,
      "steht": 1585,
      "unkt": 1586,
      "ildren": 1587,
      "data": 1588,
      "bus": 1589,
      "mag": 1590,
      "head": 1591,
      "meinen": 1592,
      "ask": 1593,
      "cted": 1594,
      "dafür": 1595,
      "women": 1596,
      "ont": 1597,
      "aft": 1598,
      "ihren": 1599,
      "Sp": 1600,
      "örper": 1601,
      "konnte": 1602,
      "bot": 1603,
      "wanted": 1604,
      "Daten": 1605,
      "mut": 1606,
      "Ste": 1607,
      "million": 1608,
      "sum": 1609,
      "unde": 1610,
      "ationen": 1611,
      "essen": 1612,
      "passiert": 1613,
      "Eine": 1614,
      "vel": 1615,
      "Prozent": 1616,
      "uff": 1617,
      "Is": 1618,
      "hol": 1619,
      "ness": 1620,
      "reas": 1621,
      "ru": 1622,
      "cap": 1623,
      "iß": 1624,
      "iolog": 1625,
      "Univers": 1626,
      "legen": 1627,
      "anke": 1628,
      "meisten": 1629,
      "ker": 1630,
      "whole": 1631,
      "fähr": 1632,
      "conom": 1633,
      "immt": 1634,
      "working": 1635,
      "mel": 1636,
      "frien": 1637,
      "Kre": 1638,
      "verstehen": 1639,
      "während": 1640,
      "selves": 1641,
      "trying": 1642,
      "Millionen": 1643,
      "ith": 1644,
      "face": 1645,
      "Schl": 1646,
      "away": 1647,
      "bor": 1648,
      "children": 1649,
      "daran": 1650,
      "erste": 1651,
      "cher": 1652,
      "schaffen": 1653,
      "Mus": 1654,
      "innen": 1655,
      "test": 1656,
      "15": 1657,
      "As": 1658,
      "mensch": 1659,
      "ments": 1660,
      "using": 1661,
      "elle": 1662,
      "zial": 1663,
      "eig": 1664,
      "Dr": 1665,
      "dire": 1666,
      "stud": 1667,
      "always": 1668,
      "warum": 1669,
      "welt": 1670,
      "jed": 1671,
      "ines": 1672,
      "ural": 1673,
      "moment": 1674,
      "mind": 1675,
      "oney": 1676,
      "Ant": 1677,
      "ßer": 1678,
      "anim": 1679,
      "ift": 1680,
      "etwa": 1681,
      "believe": 1682,
      "richt": 1683,
      "Idee": 1684,
      "econom": 1685,
      "Par": 1686,
      "ones": 1687,
      "Mö": 1688,
      "Je": 1689,
      "ikan": 1690,
      "atch": 1691,
      "gef": 1692,
      "vest": 1693,
      "wort": 1694,
      "ider": 1695,
      "sollte": 1696,
      "sollten": 1697,
      "eln": 1698,
      "ross": 1699,
      "Person": 1700,
      "Go": 1701,
      "kur": 1702,
      "sup": 1703,
      "bekommen": 1704,
      "jekt": 1705,
      "Auto": 1706,
      "health": 1707,
      "ommen": 1708,
      "ergie": 1709,
      "Geld": 1710,
      "meinem": 1711,
      "natürlich": 1712,
      "open": 1713,
      "illi": 1714,
      "Gl": 1715,
      "öt": 1716,
      "etz": 1717,
      "schnell": 1718,
      "cept": 1719,
      "ives": 1720,
      "bel": 1721,
      "coming": 1722,
      "einander": 1723,
      "blo": 1724,
      "verl": 1725,
      "Spiel": 1726,
      "country": 1727,
      "iere": 1728,
      "information": 1729,
      "space": 1730,
      "ließ": 1731,
      "große": 1732,
      "könnten": 1733,
      "anken": 1734,
      "publ": 1735,
      "global": 1736,
      "inst": 1737,
      "ischer": 1738,
      "pret": 1739,
      "val": 1740,
      "vier": 1741,
      "Raum": 1742,
      "ism": 1743,
      "wollte": 1744,
      "ös": 1745,
      "ps": 1746,
      "aces": 1747,
      "licher": 1748,
      "zeug": 1749,
      "Min": 1750,
      "vern": 1751,
      "welche": 1752,
      "cal": 1753,
      "fand": 1754,
      "home": 1755,
      "ständ": 1756,
      "ganze": 1757,
      "fte": 1758,
      "seit": 1759,
      "gh": 1760,
      "five": 1761,
      "means": 1762,
      "Wor": 1763,
      "adt": 1764,
      "schied": 1765,
      "isen": 1766,
      "ihrer": 1767,
      "sagt": 1768,
      "member": 1769,
      "doll": 1770,
      "cke": 1771,
      "Weg": 1772,
      "Oh": 1773,
      "met": 1774,
      "thinking": 1775,
      "lichkeit": 1776,
      "prof": 1777,
      "create": 1778,
      "äng": 1779,
      "ziemlich": 1780,
      "SA": 1781,
      "yo": 1782,
      "took": 1783,
      "Spr": 1784,
      "full": 1785,
      "utet": 1786,
      "hard": 1787,
      "cover": 1788,
      "zeigt": 1789,
      "hist": 1790,
      "colle": 1791,
      "kids": 1792,
      "dabei": 1793,
      "One": 1794,
      "Dank": 1795,
      "bauen": 1796,
      "half": 1797,
      "Okay": 1798,
      "Doll": 1799,
      "chten": 1800,
      "ustr": 1801,
      "ffen": 1802,
      "nov": 1803,
      "conne": 1804,
      "ivid": 1805,
      "maybe": 1806,
      "hren": 1807,
      "fahren": 1808,
      "gesehen": 1809,
      "To": 1810,
      "alten": 1811,
      "everything": 1812,
      "Mann": 1813,
      "NA": 1814,
      "uft": 1815,
      "Do": 1816,
      "hö": 1817,
      "cer": 1818,
      "hunder": 1819,
      "hören": 1820,
      "exp": 1821,
      "col": 1822,
      "Ko": 1823,
      "Nor": 1824,
      "money": 1825,
      "imp": 1826,
      "normal": 1827,
      "kun": 1828,
      "40": 1829,
      "darauf": 1830,
      "become": 1831,
      "äter": 1832,
      "asch": 1833,
      "ilm": 1834,
      "setzen": 1835,
      "fut": 1836,
      "stop": 1837,
      "igh": 1838,
      "process": 1839,
      "Kind": 1840,
      "second": 1841,
      "project": 1842,
      "uge": 1843,
      "Ende": 1844,
      "wach": 1845,
      "energ": 1846,
      "teach": 1847,
      "tra": 1848,
      "probab": 1849,
      "making": 1850,
      "food": 1851,
      "run": 1852,
      "ci": 1853,
      "sense": 1854,
      "She": 1855,
      "getting": 1856,
      "Dollar": 1857,
      "nä": 1858,
      "wed": 1859,
      "Yor": 1860,
      "brauchen": 1861,
      "left": 1862,
      "These": 1863,
      "imes": 1864,
      "ories": 1865,
      "schle": 1866,
      "China": 1867,
      "ird": 1868,
      "\".": 1869,
      "Körper": 1870,
      "reiben": 1871,
      "ilt": 1872,
      "glichkeit": 1873,
      "Famil": 1874,
      "sho": 1875,
      "ouse": 1876,
      "ready": 1877,
      "Technologie": 1878,
      "hau": 1879,
      "resp": 1880,
      "enough": 1881,
      "ule": 1882,
      "weniger": 1883,
      "interesting": 1884,
      "kre": 1885,
      "doch": 1886,
      "tem": 1887,
      "possible": 1888,
      "Fä": 1889,
      "graph": 1890,
      "Wissenschaft": 1891,
      "Dann": 1892,
      "ime": 1893,
      "kleinen": 1894,
      "dig": 1895,
      "quite": 1896,
      "arr": 1897,
      "ktur": 1898,
      "pop": 1899,
      "ierten": 1900,
      "building": 1901,
      "ced": 1902,
      "energy": 1903,
      "Gro": 1904,
      "fig": 1905,
      "bedeutet": 1906,
      "cle": 1907,
      "tschaft": 1908,
      "60": 1909,
      "Fo": 1910,
      "fle": 1911,
      "dachte": 1912,
      "üh": 1913,
      "mals": 1914,
      "laub": 1915,
      "tries": 1916,
      "contro": 1917,
      "social": 1918,
      "future": 1919,
      "win": 1920,
      "view": 1921,
      "Mein": 1922,
      "gn": 1923,
      "Pol": 1924,
      "times": 1925,
      "18": 1926,
      "ye": 1927,
      "Information": 1928,
      "ional": 1929,
      "govern": 1930,
      "program": 1931,
      "month": 1932,
      "Mut": 1933,
      "asse": 1934,
      "abor": 1935,
      "happened": 1936,
      "wee": 1937,
      "aterial": 1938,
      "unseren": 1939,
      "statt": 1940,
      "sicht": 1941,
      "ped": 1942,
      "Möglichkeit": 1943,
      "whe": 1944,
      "grund": 1945,
      "At": 1946,
      "Here": 1947,
      "Sache": 1948,
      "ertain": 1949,
      "planet": 1950,
      "probably": 1951,
      "happ": 1952,
      "führen": 1953,
      "har": 1954,
      "talking": 1955,
      "grou": 1956,
      "wand": 1957,
      "ward": 1958,
      "heiß": 1959,
      "uer": 1960,
      "science": 1961,
      "kunft": 1962,
      "hört": 1963,
      "Chr": 1964,
      "ckt": 1965,
      "dist": 1966,
      "iting": 1967,
      "ulation": 1968,
      "Energie": 1969,
      "pho": 1970,
      "tent": 1971,
      "amen": 1972,
      "zlich": 1973,
      "ices": 1974,
      "zeich": 1975,
      "ability": 1976,
      "Warum": 1977,
      "tau": 1978,
      "stuff": 1979,
      "rest": 1980,
      "fas": 1981,
      "iment": 1982,
      "ihm": 1983,
      "ator": 1984,
      "Computer": 1985,
      "Pat": 1986,
      "Fall": 1987,
      "ican": 1988,
      "kleine": 1989,
      "Let": 1990,
      "sign": 1991,
      "Euro": 1992,
      "fangen": 1993,
      "vö": 1994,
      "told": 1995,
      "halt": 1996,
      "Ob": 1997,
      "Design": 1998,
      "verwen": 1999,
      "answer": 2000,
      "Den": 2001,
      "Seite": 2002,
      "großen": 2003,
      "na": 2004,
      "äl": 2005,
      "eigentlich": 2006,
      "job": 2007,
      "sor": 2008,
      "spir": 2009,
      "äum": 2010,
      "Stadt": 2011,
      "ately": 2012,
      "Proble": 2013,
      "ged": 2014,
      "else": 2015,
      "Denn": 2016,
      "bad": 2017,
      "12": 2018,
      "Män": 2019,
      "zwe": 2020,
      "enz": 2021,
      "without": 2022,
      "jeden": 2023,
      "tal": 2024,
      "ants": 2025,
      "pretty": 2026,
      "mil": 2027,
      "viron": 2028,
      "schr": 2029,
      "sub": 2030,
      "keep": 2031,
      "cture": 2032,
      "wenig": 2033,
      "hour": 2034,
      "hed": 2035,
      "führt": 2036,
      "jo": 2037,
      "char": 2038,
      "lives": 2039,
      "\",": 2040,
      "reason": 2041,
      "anything": 2042,
      "wonder": 2043,
      "ister": 2044,
      "pect": 2045,
      "miss": 2046,
      "utz": 2047,
      "serv": 2048,
      "OK": 2049,
      "liegen": 2050,
      "Frau": 2051,
      "hope": 2052,
      "model": 2053,
      "fund": 2054,
      "walk": 2055,
      "simple": 2056,
      "reichen": 2057,
      "Ja": 2058,
      "fern": 2059,
      "York": 2060,
      "dollars": 2061,
      "kten": 2062,
      "wunder": 2063,
      "studen": 2064,
      "besonder": 2065,
      "business": 2066,
      "countries": 2067,
      "ga": 2068,
      "order": 2069,
      "Dar": 2070,
      "Ged": 2071,
      "oper": 2072,
      "80": 2073,
      "On": 2074,
      "gs": 2075,
      "aller": 2076,
      "front": 2077,
      "ismus": 2078,
      "Weise": 2079,
      "bro": 2080,
      "aur": 2081,
      "ying": 2082,
      "environ": 2083,
      "lernen": 2084,
      "System": 2085,
      "Jo": 2086,
      "Why": 2087,
      "schaften": 2088,
      "Grup": 2089,
      "ganzen": 2090,
      "Buch": 2091,
      "wind": 2092,
      "rop": 2093,
      "mittel": 2094,
      "seen": 2095,
      "saw": 2096,
      "Ele": 2097,
      "mother": 2098,
      "gesagt": 2099,
      "itu": 2100,
      "llow": 2101,
      "hab": 2102,
      "qual": 2103,
      "computer": 2104,
      "ament": 2105,
      "jen": 2106,
      "fest": 2107,
      "wahrschein": 2108,
      "rad": 2109,
      "ansp": 2110,
      "sound": 2111,
      "Du": 2112,
      "Pe": 2113,
      "national": 2114,
      "says": 2115,
      "Fir": 2116,
      "ply": 2117,
      "ton": 2118,
      "klär": 2119,
      "schauen": 2120,
      "außer": 2121,
      "across": 2122,
      "Lie": 2123,
      "ument": 2124,
      "living": 2125,
      "ince": 2126,
      "chan": 2127,
      "exist": 2128,
      "scient": 2129,
      "keinen": 2130,
      "cult": 2131,
      "Gemein": 2132,
      "absol": 2133,
      "Ber": 2134,
      "later": 2135,
      "city": 2136,
      "esearch": 2137,
      "gemein": 2138,
      "makes": 2139,
      "Menge": 2140,
      "Moment": 2141,
      "inde": 2142,
      "pos": 2143,
      "entwickel": 2144,
      "fort": 2145,
      "asked": 2146,
      "später": 2147,
      "hätte": 2148,
      "Co": 2149,
      "iet": 2150,
      "iff": 2151,
      "child": 2152,
      "versuchen": 2153,
      "fün": 2154,
      "hoch": 2155,
      "experience": 2156,
      "educ": 2157,
      "wickl": 2158,
      "zahl": 2159,
      "iges": 2160,
      "sah": 2161,
      "level": 2162,
      "irl": 2163,
      "case": 2164,
      "eas": 2165,
      "Engl": 2166,
      "glauben": 2167,
      "Vielen": 2168,
      "arbe": 2169,
      "beginn": 2170,
      "Africa": 2171,
      "hor": 2172,
      "lea": 2173,
      "ionen": 2174,
      "certain": 2175,
      "stellung": 2176,
      "Entwickl": 2177,
      "Zukunft": 2178,
      "ax": 2179,
      "iving": 2180,
      "having": 2181,
      "goes": 2182,
      "Sel": 2183,
      "Danke": 2184,
      "Groß": 2185,
      "El": 2186,
      "wicht": 2187,
      "young": 2188,
      "hung": 2189,
      "family": 2190,
      "kü": 2191,
      "uring": 2192,
      "trag": 2193,
      "vielen": 2194,
      "Ort": 2195,
      "hing": 2196,
      "learn": 2197,
      "Ear": 2198,
      "Licht": 2199,
      "particular": 2200,
      "works": 2201,
      "pict": 2202,
      "beim": 2203,
      "public": 2204,
      "bil": 2205,
      "effect": 2206,
      "photo": 2207,
      "biolog": 2208,
      "itten": 2209,
      "happens": 2210,
      "complete": 2211,
      "lim": 2212,
      "ided": 2213,
      "ousand": 2214,
      "control": 2215,
      "six": 2216,
      "while": 2217,
      "plic": 2218,
      "Augen": 2219,
      "illiar": 2220,
      "Bil": 2221,
      "fünf": 2222,
      "invest": 2223,
      "undheit": 2224,
      "ativ": 2225,
      "zo": 2226,
      "iety": 2227,
      "unglaub": 2228,
      "picture": 2229,
      "ily": 2230,
      "individ": 2231,
      "higkeit": 2232,
      "Kop": 2233,
      "Po": 2234,
      "ingen": 2235,
      "ered": 2236,
      "wert": 2237,
      "utes": 2238,
      "oked": 2239,
      "Natur": 2240,
      "icher": 2241,
      "heißt": 2242,
      "ctr": 2243,
      "thousand": 2244,
      "problems": 2245,
      "eigenen": 2246,
      "ief": 2247,
      "Milliar": 2248,
      "ches": 2249,
      "anzu": 2250,
      "chang": 2251,
      "konnten": 2252,
      "fal": 2253,
      "frag": 2254,
      "yes": 2255,
      "nung": 2256,
      "funktioniert": 2257,
      "bur": 2258,
      "Kar": 2259,
      "Son": 2260,
      "lö": 2261,
      "ändert": 2262,
      "anders": 2263,
      "Jetzt": 2264,
      "tt": 2265,
      "sozial": 2266,
      "ization": 2267,
      "days": 2268,
      "Spe": 2269,
      "indem": 2270,
      "themat": 2271,
      "jedes": 2272,
      "environment": 2273,
      "nutzen": 2274,
      "som": 2275,
      "Mutter": 2276,
      "wahrscheinlich": 2277,
      "single": 2278,
      "Haus": 2279,
      "ahlen": 2280,
      "deut": 2281,
      "Organ": 2282,
      "Earth": 2283,
      "CA": 2284,
      "gute": 2285,
      "gestellt": 2286,
      "di": 2287,
      "Schr": 2288,
      "cou": 2289,
      "wusst": 2290,
      "esell": 2291,
      "gang": 2292,
      "hear": 2293,
      "research": 2294,
      "Produ": 2295,
      "ror": 2296,
      "oman": 2297,
      "worden": 2298,
      "komple": 2299,
      "Probleme": 2300,
      "ateg": 2301,
      "langu": 2302,
      "inside": 2303,
      "remember": 2304,
      "almost": 2305,
      "pers": 2306,
      "Ir": 2307,
      "suc": 2308,
      "helfen": 2309,
      "verschieden": 2310,
      "ware": 2311,
      "iti": 2312,
      "Af": 2313,
      "tom": 2314,
      "began": 2315,
      "train": 2316,
      "night": 2317,
      "Erde": 2318,
      "ris": 2319,
      "ages": 2320,
      "Lo": 2321,
      "liegt": 2322,
      "Gesell": 2323,
      "ctive": 2324,
      "billion": 2325,
      "watch": 2326,
      "iker": 2327,
      "ues": 2328,
      "send": 2329,
      "forder": 2330,
      "words": 2331,
      "flo": 2332,
      "music": 2333,
      "Wahr": 2334,
      "fic": 2335,
      "herum": 2336,
      "Sta": 2337,
      "ball": 2338,
      "amm": 2339,
      "iverse": 2340,
      "suchen": 2341,
      "folgen": 2342,
      "lange": 2343,
      "erzählen": 2344,
      "ond": 2345,
      "mic": 2346,
      "nothing": 2347,
      "sure": 2348,
      "yet": 2349,
      "aren": 2350,
      "basically": 2351,
      "Gesundheit": 2352,
      "extre": 2353,
      "patient": 2354,
      "seiner": 2355,
      "amaz": 2356,
      "Am": 2357,
      "ail": 2358,
      "guy": 2359,
      "must": 2360,
      "stead": 2361,
      "gal": 2362,
      "recht": 2363,
      "tru": 2364,
      "ziehen": 2365,
      "spielen": 2366,
      "fragen": 2367,
      "acy": 2368,
      "sage": 2369,
      "electr": 2370,
      "Mensch": 2371,
      "saying": 2372,
      "sex": 2373,
      "äft": 2374,
      "once": 2375,
      "isches": 2376,
      "pain": 2377,
      "ähr": 2378,
      "ders": 2379,
      "looked": 2380,
      "typ": 2381,
      "wachsen": 2382,
      "anal": 2383,
      "state": 2384,
      "contin": 2385,
      "pf": 2386,
      "class": 2387,
      "hlt": 2388,
      "someone": 2389,
      "house": 2390,
      "cost": 2391,
      "whether": 2392,
      "Patient": 2393,
      "USA": 2394,
      "acc": 2395,
      "both": 2396,
      "neuen": 2397,
      "nächsten": 2398,
      "dau": 2399,
      "iele": 2400,
      "allow": 2401,
      "falls": 2402,
      "DNA": 2403,
      "community": 2404,
      "psy": 2405,
      "already": 2406,
      "schn": 2407,
      "dise": 2408,
      "Projekt": 2409,
      "braucht": 2410,
      "zehn": 2411,
      "zentr": 2412,
      "chmal": 2413,
      "ideas": 2414,
      "gets": 2415,
      "speak": 2416,
      "ures": 2417,
      "genug": 2418,
      "ca": 2419,
      "glichen": 2420,
      "Qu": 2421,
      "fäll": 2422,
      "90": 2423,
      "ling": 2424,
      "unserem": 2425,
      "wrong": 2426,
      "erinn": 2427,
      "hinter": 2428,
      "richtig": 2429,
      "schwer": 2430,
      "girl": 2431,
      "add": 2432,
      "within": 2433,
      "ktr": 2434,
      "verk": 2435,
      "ammen": 2436,
      "exact": 2437,
      "ünst": 2438,
      "defin": 2439,
      "present": 2440,
      "heard": 2441,
      "mass": 2442,
      "unch": 2443,
      "etimes": 2444,
      "gesam": 2445,
      "autif": 2446,
      "unst": 2447,
      "genommen": 2448,
      "idd": 2449,
      "history": 2450,
      "myself": 2451,
      "challen": 2452,
      "incred": 2453,
      "Ha": 2454,
      "tho": 2455,
      "que": 2456,
      "fish": 2457,
      "text": 2458,
      "Schul": 2459,
      "matter": 2460,
      "heart": 2461,
      "klar": 2462,
      "25": 2463,
      "Nicht": 2464,
      "often": 2465,
      "ield": 2466,
      "true": 2467,
      "offe": 2468,
      "heiten": 2469,
      "begann": 2470,
      "large": 2471,
      "figure": 2472,
      "amazing": 2473,
      "immen": 2474,
      "ury": 2475,
      "looks": 2476,
      "Selbst": 2477,
      "imagine": 2478,
      "ret": 2479,
      "adition": 2480,
      "emp": 2481,
      "cells": 2482,
      "ums": 2483,
      "beautif": 2484,
      "posit": 2485,
      "kelt": 2486,
      "dessen": 2487,
      "hold": 2488,
      "ases": 2489,
      "heim": 2490,
      "mess": 2491,
      "zess": 2492,
      "ungefähr": 2493,
      "ennt": 2494,
      "hund": 2495,
      "gleichen": 2496,
      "Bere": 2497,
      "sei": 2498,
      "gehört": 2499,
      "Not": 2500,
      "Foto": 2501,
      "government": 2502,
      "Gegen": 2503,
      "ians": 2504,
      "ground": 2505,
      "built": 2506,
      "word": 2507,
      "systems": 2508,
      "hält": 2509,
      "demo": 2510,
      "gangen": 2511,
      "United": 2512,
      "ott": 2513,
      "sw": 2514,
      "vious": 2515,
      "verändern": 2516,
      "oc": 2517,
      "70": 2518,
      "aneten": 2519,
      "11": 2520,
      "appe": 2521,
      "jede": 2522,
      "teilen": 2523,
      "Kopf": 2524,
      "pay": 2525,
      "alen": 2526,
      "expl": 2527,
      "cons": 2528,
      "fekt": 2529,
      "Schule": 2530,
      "couple": 2531,
      "bracht": 2532,
      "bevor": 2533,
      "action": 2534,
      "piece": 2535,
      "Informationen": 2536,
      "bare": 2537,
      "eben": 2538,
      "Forsch": 2539,
      "por": 2540,
      "leich": 2541,
      "schön": 2542,
      "Form": 2543,
      "ädchen": 2544,
      "Bü": 2545,
      "bi": 2546,
      "tragen": 2547,
      "Planeten": 2548,
      "months": 2549,
      "ev": 2550,
      "law": 2551,
      "entire": 2552,
      "ilo": 2553,
      "Ideen": 2554,
      "Meine": 2555,
      "chs": 2556,
      "iddle": 2557,
      "satz": 2558,
      "gress": 2559,
      "Zus": 2560,
      "Für": 2561,
      "bind": 2562,
      "reden": 2563,
      "Erfahr": 2564,
      "bisschen": 2565,
      "beha": 2566,
      "ücken": 2567,
      "Musik": 2568,
      "lon": 2569,
      "alter": 2570,
      "Fähigkeit": 2571,
      "Leuten": 2572,
      "video": 2573,
      "itte": 2574,
      "ultur": 2575,
      "Exper": 2576,
      "beautiful": 2577,
      "dent": 2578,
      "Unternehmen": 2579,
      "outh": 2580,
      "schre": 2581,
      "seinen": 2582,
      "ctor": 2583,
      "places": 2584,
      "bau": 2585,
      "rot": 2586,
      "engine": 2587,
      "language": 2588,
      "scheid": 2589,
      "Krie": 2590,
      "Kunst": 2591,
      "urs": 2592,
      "friends": 2593,
      "Mode": 2594,
      "close": 2595,
      "Some": 2596,
      "lung": 2597,
      "cancer": 2598,
      "Ur": 2599,
      "lern": 2600,
      "zung": 2601,
      "Milliarden": 2602,
      "ett": 2603,
      "Mädchen": 2604,
      "ugen": 2605,
      "bekann": 2606,
      "lik": 2607,
      "appro": 2608,
      "group": 2609,
      "though": 2610,
      "icken": 2611,
      "Arten": 2612,
      "Gebäu": 2613,
      "liches": 2614,
      "species": 2615,
      "Punkt": 2616,
      "une": 2617,
      "sequ": 2618,
      "Ang": 2619,
      "universe": 2620,
      "sagten": 2621,
      "nisse": 2622,
      "isn": 2623,
      "exc": 2624,
      "Video": 2625,
      "Lehr": 2626,
      "Bed": 2627,
      "schließ": 2628,
      "techn": 2629,
      "ivil": 2630,
      "aden": 2631,
      "tend": 2632,
      "fert": 2633,
      "flu": 2634,
      "ries": 2635,
      "Fragen": 2636,
      "until": 2637,
      "schwier": 2638,
      "Glück": 2639,
      "clear": 2640,
      "dich": 2641,
      "erkennen": 2642,
      "darum": 2643,
      "arm": 2644,
      "ände": 2645,
      "cts": 2646,
      "pris": 2647,
      "entwickelt": 2648,
      "Antwort": 2649,
      "cut": 2650,
      "überall": 2651,
      "bereit": 2652,
      "wasn": 2653,
      "musste": 2654,
      "taking": 2655,
      "Stra": 2656,
      "ake": 2657,
      "everybody": 2658,
      "Every": 2659,
      "event": 2660,
      "fang": 2661,
      "var": 2662,
      "ames": 2663,
      "ared": 2664,
      "ße": 2665,
      "nennen": 2666,
      "arbeite": 2667,
      "äche": 2668,
      "findet": 2669,
      "innov": 2670,
      "imens": 2671,
      "utzt": 2672,
      "phone": 2673,
      "decided": 2674,
      "Gott": 2675,
      "ihrem": 2676,
      "Dieses": 2677,
      "Männer": 2678,
      "Geschichten": 2679,
      "lin": 2680,
      "completely": 2681,
      "schau": 2682,
      "hundert": 2683,
      "anderes": 2684,
      "dete": 2685,
      "emot": 2686,
      "oben": 2687,
      "ping": 2688,
      "eren": 2689,
      "States": 2690,
      "großart": 2691,
      "free": 2692,
      "ühr": 2693,
      "machte": 2694,
      "past": 2695,
      "Familie": 2696,
      "anzen": 2697,
      "key": 2698,
      "spend": 2699,
      "education": 2700,
      "stories": 2701,
      "Stu": 2702,
      "euch": 2703,
      "ash": 2704,
      "transp": 2705,
      "arbeitet": 2706,
      "study": 2707,
      "acter": 2708,
      "priv": 2709,
      "fing": 2710,
      "glück": 2711,
      "kamen": 2712,
      "behavi": 2713,
      "hle": 2714,
      "somebody": 2715,
      "quick": 2716,
      "Gener": 2717,
      "share": 2718,
      "God": 2719,
      "Kön": 2720,
      "ature": 2721,
      "bereits": 2722,
      "success": 2723,
      "knew": 2724,
      "tool": 2725,
      "object": 2726,
      "nature": 2727,
      "meet": 2728,
      "zept": 2729,
      "woman": 2730,
      "ließen": 2731,
      "discover": 2732,
      "name": 2733,
      "richten": 2734,
      "became": 2735,
      "nee": 2736,
      "izin": 2737,
      "Netz": 2738,
      "game": 2739,
      "wend": 2740,
      "relation": 2741,
      "hmen": 2742,
      "Goo": 2743,
      "fly": 2744,
      "trie": 2745,
      "students": 2746,
      "Nein": 2747,
      "ibly": 2748,
      "learned": 2749,
      "Afrika": 2750,
      "exactly": 2751,
      "dev": 2752,
      "erklär": 2753,
      "since": 2754,
      "kinds": 2755,
      "Entscheid": 2756,
      "fully": 2757,
      "öhn": 2758,
      "erreichen": 2759,
      "itself": 2760,
      "America": 2761,
      "Zusammen": 2762,
      "Ho": 2763,
      "equ": 2764,
      "turns": 2765,
      "Minuten": 2766,
      "Lös": 2767,
      "happening": 2768,
      "nahmen": 2769,
      "oce": 2770,
      "ilfe": 2771,
      "ourselves": 2772,
      "ienen": 2773,
      "break": 2774,
      "dir": 2775,
      "dom": 2776,
      "won": 2777,
      "deal": 2778,
      "ordin": 2779,
      "American": 2780,
      "company": 2781,
      "bild": 2782,
      "link": 2783,
      "änger": 2784,
      "animals": 2785,
      "redu": 2786,
      "aud": 2787,
      "ples": 2788,
      "passion": 2789,
      "igten": 2790,
      "iste": 2791,
      "friend": 2792,
      "auszu": 2793,
      "besonders": 2794,
      "cir": 2795,
      "huge": 2796,
      "West": 2797,
      "mis": 2798,
      "Krank": 2799,
      "oftware": 2800,
      "verschiedene": 2801,
      "society": 2802,
      "öffent": 2803,
      "lä": 2804,
      "leb": 2805,
      "portun": 2806,
      "Fol": 2807,
      "kä": 2808,
      "against": 2809,
      "ene": 2810,
      "amo": 2811,
      "India": 2812,
      "istan": 2813,
      "druck": 2814,
      "fant": 2815,
      "anten": 2816,
      "cool": 2817,
      "gerne": 2818,
      "haps": 2819,
      "questions": 2820,
      "tens": 2821,
      "hätten": 2822,
      "Gruppe": 2823,
      "benutzen": 2824,
      "Beweg": 2825,
      "Verhalten": 2826,
      "namens": 2827,
      "eins": 2828,
      "happy": 2829,
      "hind": 2830,
      "along": 2831,
      "ired": 2832,
      "verb": 2833,
      "itz": 2834,
      "main": 2835,
      "clim": 2836,
      "Bilder": 2837,
      "zug": 2838,
      "cogn": 2839,
      "minutes": 2840,
      "scheiden": 2841,
      "hours": 2842,
      "Film": 2843,
      "field": 2844,
      "liter": 2845,
      "seinem": 2846,
      "market": 2847,
      "team": 2848,
      "complex": 2849,
      "wirtschaft": 2850,
      "Arch": 2851,
      "themselves": 2852,
      "Robo": 2853,
      "Inst": 2854,
      "created": 2855,
      "Macht": 2856,
      "stüt": 2857,
      "Gesellschaft": 2858,
      "Su": 2859,
      "opportun": 2860,
      "Oder": 2861,
      "darin": 2862,
      "Angst": 2863,
      "ähn": 2864,
      "pel": 2865,
      "wär": 2866,
      "Google": 2867,
      "stat": 2868,
      "Kor": 2869,
      "anger": 2870,
      "Durch": 2871,
      "zä": 2872,
      "ächt": 2873,
      "father": 2874,
      "aun": 2875,
      "Gew": 2876,
      "Con": 2877,
      "meas": 2878,
      "ifen": 2879,
      "worked": 2880,
      "ony": 2881,
      "ides": 2882,
      "Wort": 2883,
      "ource": 2884,
      "Weil": 2885,
      "Vielleicht": 2886,
      "ante": 2887,
      "drug": 2888,
      "Herz": 2889,
      "mark": 2890,
      "foc": 2891,
      "ahn": 2892,
      "Car": 2893,
      "cks": 2894,
      "rather": 2895,
      "haupt": 2896,
      "entwickeln": 2897,
      "Che": 2898,
      "onen": 2899,
      "hler": 2900,
      "bewegen": 2901,
      "dest": 2902,
      "els": 2903,
      "ausge": 2904,
      "sometimes": 2905,
      "igung": 2906,
      "Flug": 2907,
      "wissenschaft": 2908,
      "gefunden": 2909,
      "beein": 2910,
      "affen": 2911,
      "standen": 2912,
      "diffic": 2913,
      "Indien": 2914,
      "Regierung": 2915,
      "Lin": 2916,
      "super": 2917,
      "fil": 2918,
      "activ": 2919,
      "Then": 2920,
      "least": 2921,
      "Ergeb": 2922,
      "ished": 2923,
      "lead": 2924,
      "ush": 2925,
      "guys": 2926,
      "personal": 2927,
      "Patienten": 2928,
      "Kultur": 2929,
      "ucht": 2930,
      "Gefühl": 2931,
      "century": 2932,
      "gewöhn": 2933,
      "Richt": 2934,
      "intell": 2935,
      "lebt": 2936,
      "einigen": 2937,
      "sechs": 2938,
      "ager": 2939,
      "chem": 2940,
      "listen": 2941,
      "natural": 2942,
      "gave": 2943,
      "lots": 2944,
      "couldn": 2945,
      "Masch": 2946,
      "prote": 2947,
      "Schw": 2948,
      "jedem": 2949,
      "wards": 2950,
      "Doch": 2951,
      "Sü": 2952,
      "itä": 2953,
      "Ty": 2954,
      "bie": 2955,
      "Stunden": 2956,
      "fühlen": 2957,
      "third": 2958,
      "istic": 2959,
      "tradition": 2960,
      "frü": 2961,
      "lossen": 2962,
      "Can": 2963,
      "Ye": 2964,
      "lker": 2965,
      "pas": 2966,
      "vorstellen": 2967,
      "Verbind": 2968,
      "folg": 2969,
      "bestimm": 2970,
      "rate": 2971,
      "others": 2972,
      "ban": 2973,
      "ially": 2974,
      "punkt": 2975,
      "Bei": 2976,
      "aver": 2977,
      "seven": 2978,
      "Freund": 2979,
      "Sprache": 2980,
      "Tod": 2981,
      "mill": 2982,
      "rieben": 2983,
      "turned": 2984,
      "500": 2985,
      "genann": 2986,
      "based": 2987,
      "genet": 2988,
      "bald": 2989,
      "Vater": 2990,
      "stu": 2991,
      "Bab": 2992,
      "sent": 2993,
      "inal": 2994,
      "instead": 2995,
      "iken": 2996,
      "posed": 2997,
      "Program": 2998,
      "ctions": 2999,
      "verschiedenen": 3000,
      "bat": 3001,
      "ric": 3002,
      "news": 3003,
      "thousands": 3004,
      "stoff": 3005,
      "orgen": 3006,
      "invol": 3007,
      "online": 3008,
      "treat": 3009,
      "vorher": 3010,
      "early": 3011,
      "disease": 3012,
      "erhalten": 3013,
      "everyone": 3014,
      "gebaut": 3015,
      "besten": 3016,
      "changed": 3017,
      "Ziel": 3018,
      "ither": 3019,
      "ingt": 3020,
      "Char": 3021,
      "dy": 3022,
      "sl": 3023,
      "beiden": 3024,
      "relig": 3025,
      "Di": 3026,
      "coll": 3027,
      "itting": 3028,
      "manchmal": 3029,
      "contr": 3030,
      "known": 3031,
      "akter": 3032,
      "geln": 3033,
      "ike": 3034,
      "nt": 3035,
      "scale": 3036,
      "prov": 3037,
      "Bau": 3038,
      "ials": 3039,
      "ller": 3040,
      "bringt": 3041,
      "death": 3042,
      "follow": 3043,
      "unterschied": 3044,
      "micro": 3045,
      "taken": 3046,
      "vision": 3047,
      "relationship": 3048,
      "bir": 3049,
      "verr": 3050,
      "Stud": 3051,
      "organis": 3052,
      "Sicher": 3053,
      "Veränder": 3054,
      "treffen": 3055,
      "Luft": 3056,
      "Städ": 3057,
      "wollten": 3058,
      "irgendwie": 3059,
      "lose": 3060,
      "ford": 3061,
      "niemand": 3062,
      "Bezie": 3063,
      "machine": 3064,
      "krat": 3065,
      "einzel": 3066,
      "Eltern": 3067,
      "Pre": 3068,
      "ision": 3069,
      "graf": 3070,
      "telle": 3071,
      "Gebäude": 3072,
      "outside": 3073,
      "ktiv": 3074,
      "grün": 3075,
      "pic": 3076,
      "lösen": 3077,
      "Hau": 3078,
      "verändert": 3079,
      "zieren": 3080,
      "werk": 3081,
      "ama": 3082,
      "extra": 3083,
      "menschlichen": 3084,
      "oil": 3085,
      "ney": 3086,
      "difference": 3087,
      "amera": 3088,
      "behavior": 3089,
      "moving": 3090,
      "ässt": 3091,
      "Bereich": 3092,
      "erwar": 3093,
      "recent": 3094,
      "zeugen": 3095,
      "einzige": 3096,
      "moral": 3097,
      "Hause": 3098,
      "band": 3099,
      "aufzu": 3100,
      "apan": 3101,
      "16": 3102,
      "enor": 3103,
      "igte": 3104,
      "schreiben": 3105,
      "ules": 3106,
      "getan": 3107,
      "bon": 3108,
      "black": 3109,
      "learning": 3110,
      "HI": 3111,
      "enzen": 3112,
      "utions": 3113,
      "given": 3114,
      "jour": 3115,
      "non": 3116,
      "bemer": 3117,
      "west": 3118,
      "verwenden": 3119,
      "difficult": 3120,
      "Fahr": 3121,
      "gere": 3122,
      "!\"": 3123,
      "digital": 3124,
      "Entwicklung": 3125,
      "Sinn": 3126,
      "iben": 3127,
      "grad": 3128,
      "14": 3129,
      "heut": 3130,
      "mechan": 3131,
      "green": 3132,
      "experiment": 3133,
      "compan": 3134,
      "Sachen": 3135,
      "nämlich": 3136,
      "indust": 3137,
      "common": 3138,
      "deren": 3139,
      "Stre": 3140,
      "kurz": 3141,
      "John": 3142,
      "middle": 3143,
      "potent": 3144,
      "Europe": 3145,
      "easy": 3146,
      "dict": 3147,
      "sym": 3148,
      "Organis": 3149,
      "incl": 3150,
      "adv": 3151,
      "comput": 3152,
      "area": 3153,
      "Studen": 3154,
      "yourself": 3155,
      "beginnen": 3156,
      "Part": 3157,
      "prom": 3158,
      "step": 3159,
      "box": 3160,
      "stellte": 3161,
      "Roboter": 3162,
      "pattern": 3163,
      "Wel": 3164,
      "cities": 3165,
      "evolution": 3166,
      "perhaps": 3167,
      "archite": 3168,
      "äume": 3169,
      "häng": 3170,
      "mult": 3171,
      "communic": 3172,
      "Har": 3173,
      "aktion": 3174,
      "gaben": 3175,
      "sens": 3176,
      "grand": 3177,
      "eher": 3178,
      "culture": 3179,
      "parents": 3180,
      "innerhalb": 3181,
      "squ": 3182,
      "pet": 3183,
      "population": 3184,
      "Ju": 3185,
      "traf": 3186,
      "board": 3187,
      "uster": 3188,
      "Dieser": 3189,
      "Heraus": 3190,
      "explain": 3191,
      "Hö": 3192,
      "deep": 3193,
      "enter": 3194,
      "tion": 3195,
      "ils": 3196,
      "mole": 3197,
      "Uns": 3198,
      "takes": 3199,
      "Just": 3200,
      "died": 3201,
      "terms": 3202,
      "Fort": 3203,
      "eyes": 3204,
      "gy": 3205,
      "laufen": 3206,
      "zte": 3207,
      "Stück": 3208,
      "stens": 3209,
      "Techn": 3210,
      "issue": 3211,
      "Som": 3212,
      "Wä": 3213,
      "leave": 3214,
      "image": 3215,
      "prim": 3216,
      "fundament": 3217,
      "schö": 3218,
      "kraft": 3219,
      "street": 3220,
      "Gleich": 3221,
      "nal": 3222,
      "reach": 3223,
      "seeing": 3224,
      "deck": 3225,
      "cont": 3226,
      "scheint": 3227,
      "arg": 3228,
      "Meer": 3229,
      "überhaupt": 3230,
      "male": 3231,
      "Kindern": 3232,
      "absolute": 3233,
      "schnitt": 3234,
      "jor": 3235,
      "kill": 3236,
      "sug": 3237,
      "merk": 3238,
      "Krebs": 3239,
      "unglaublich": 3240,
      "17": 3241,
      "jähr": 3242,
      "kennt": 3243,
      "sun": 3244,
      "path": 3245,
      "World": 3246,
      "kil": 3247,
      "zustellen": 3248,
      "profess": 3249,
      "rup": 3250,
      "beob": 3251,
      "needs": 3252,
      "Werk": 3253,
      "lieben": 3254,
      "rele": 3255,
      "außen": 3256,
      "impro": 3257,
      "Wirk": 3258,
      "finally": 3259,
      "hiel": 3260,
      "ences": 3261,
      "tete": 3262,
      "behind": 3263,
      "viol": 3264,
      "Ap": 3265,
      "local": 3266,
      "week": 3267,
      "Herausforder": 3268,
      "parts": 3269,
      "wusste": 3270,
      "Pub": 3271,
      "eff": 3272,
      "versucht": 3273,
      "beginning": 3274,
      "HIV": 3275,
      "ior": 3276,
      "obvious": 3277,
      "film": 3278,
      "erweise": 3279,
      "reicht": 3280,
      "mögen": 3281,
      "Dis": 3282,
      "Material": 3283,
      "Wh": 3284,
      "Chris": 3285,
      "saf": 3286,
      "ieden": 3287,
      "Länder": 3288,
      "lässt": 3289,
      "gegeben": 3290,
      "force": 3291,
      "Prozess": 3292,
      "foot": 3293,
      "Umwelt": 3294,
      "zwar": 3295,
      "pract": 3296,
      "hands": 3297,
      "fur": 3298,
      "Gre": 3299,
      "Ober": 3300,
      "rote": 3301,
      "brachte": 3302,
      "idence": 3303,
      "dream": 3304,
      "Stellen": 3305,
      "fanden": 3306,
      "during": 3307,
      "Grün": 3308,
      "Ter": 3309,
      "size": 3310,
      "tut": 3311,
      "rech": 3312,
      "allem": 3313,
      "paper": 3314,
      "schließlich": 3315,
      "draw": 3316,
      "199": 3317,
      "ständig": 3318,
      "bewe": 3319,
      "short": 3320,
      "May": 3321,
      "gas": 3322,
      "Demo": 3323,
      "gabe": 3324,
      "Lage": 3325,
      "eight": 3326,
      "inen": 3327,
      "ali": 3328,
      "itive": 3329,
      "reality": 3330,
      "wonderful": 3331,
      "onnen": 3332,
      "tele": 3333,
      "terr": 3334,
      "bleiben": 3335,
      "Wochen": 3336,
      "ocean": 3337,
      "fantast": 3338,
      "companies": 3339,
      "lam": 3340,
      "bewusst": 3341,
      "igned": 3342,
      "Bes": 3343,
      "uß": 3344,
      "Web": 3345,
      "feed": 3346,
      "Rest": 3347,
      "Erfahrung": 3348,
      "Publik": 3349,
      "ilen": 3350,
      "völker": 3351,
      "Res": 3352,
      "fac": 3353,
      "mä": 3354,
      "nimmt": 3355,
      "cannot": 3356,
      "Na": 3357,
      "kehr": 3358,
      "simply": 3359,
      "longer": 3360,
      "entr": 3361,
      "Anfang": 3362,
      "realized": 3363,
      "powerful": 3364,
      "economic": 3365,
      "Zum": 3366,
      "consum": 3367,
      "syn": 3368,
      "cholog": 3369,
      "nahm": 3370,
      "Mik": 3371,
      "expect": 3372,
      "wohn": 3373,
      "menschliche": 3374,
      "amount": 3375,
      "ücke": 3376,
      "oud": 3377,
      "bill": 3378,
      "wall": 3379,
      "poor": 3380,
      "sterben": 3381,
      "Freunde": 3382,
      "pose": 3383,
      "blue": 3384,
      "interessant": 3385,
      "People": 3386,
      "Vir": 3387,
      "alien": 3388,
      "itution": 3389,
      "access": 3390,
      "mathemat": 3391,
      "nahme": 3392,
      "Möglichkeiten": 3393,
      "major": 3394,
      "risk": 3395,
      "cord": 3396,
      "map": 3397,
      "knowled": 3398,
      "möglichen": 3399,
      "Lehrer": 3400,
      "needed": 3401,
      "Gal": 3402,
      "Nat": 3403,
      "icks": 3404,
      "lesen": 3405,
      "Pap": 3406,
      "inspir": 3407,
      "meines": 3408,
      "cing": 3409,
      "baren": 3410,
      "nächste": 3411,
      "Japan": 3412,
      "felt": 3413,
      "hang": 3414,
      "orie": 3415,
      "road": 3416,
      "ention": 3417,
      "perfect": 3418,
      "ängt": 3419,
      "Universum": 3420,
      "Yeah": 3421,
      "shar": 3422,
      "weitere": 3423,
      "situ": 3424,
      "Tages": 3425,
      "stay": 3426,
      "unten": 3427,
      "amerikan": 3428,
      "haus": 3429,
      "material": 3430,
      "sät": 3431,
      "llig": 3432,
      "tried": 3433,
      "Per": 3434,
      "Team": 3435,
      "Stru": 3436,
      "Tiere": 3437,
      "ull": 3438,
      "ana": 3439,
      "okay": 3440,
      "born": 3441,
      "Don": 3442,
      "Ist": 3443,
      "wood": 3444,
      "prin": 3445,
      "mussten": 3446,
      "Tier": 3447,
      "ming": 3448,
      "ina": 3449,
      "orig": 3450,
      "whatever": 3451,
      "Dingen": 3452,
      "surv": 3453,
      "interested": 3454,
      "special": 3455,
      "Sk": 3456,
      "krie": 3457,
      "wit": 3458,
      "thank": 3459,
      "schafts": 3460,
      "Polit": 3461,
      "Situ": 3462,
      "ald": 3463,
      "sende": 3464,
      "hood": 3465,
      "Sicherheit": 3466,
      "Kap": 3467,
      "füg": 3468,
      "fair": 3469,
      "gone": 3470,
      "rogen": 3471,
      "robot": 3472,
      "media": 3473,
      "quality": 3474,
      "bank": 3475,
      "post": 3476,
      "letzte": 3477,
      "Denken": 3478,
      "pur": 3479,
      "ron": 3480,
      "worth": 3481,
      "Job": 3482,
      "forward": 3483,
      "auft": 3484,
      "Mittel": 3485,
      "Struktur": 3486,
      "schüt": 3487,
      "ources": 3488,
      "ziert": 3489,
      "aged": 3490,
      "ghan": 3491,
      "13": 3492,
      "rein": 3493,
      "fläche": 3494,
      "type": 3495,
      "auto": 3496,
      "buy": 3497,
      "kämp": 3498,
      "tz": 3499,
      "uld": 3500,
      "zü": 3501,
      "plant": 3502,
      "Klim": 3503,
      "value": 3504,
      "scre": 3505,
      "Rei": 3506,
      "gleiche": 3507,
      "hnen": 3508,
      "anach": 3509,
      "Tage": 3510,
      "fine": 3511,
      "fragte": 3512,
      "CO": 3513,
      "piele": 3514,
      "Real": 3515,
      "growth": 3516,
      "pression": 3517,
      "itions": 3518,
      "tot": 3519,
      "sever": 3520,
      "Verein": 3521,
      "eigene": 3522,
      "extreme": 3523,
      "Bür": 3524,
      "Kur": 3525,
      "ibility": 3526,
      "solche": 3527,
      "sta": 3528,
      "atic": 3529,
      "recogn": 3530,
      "direkt": 3531,
      "position": 3532,
      "Publikum": 3533,
      "dep": 3534,
      "descr": 3535,
      "quickly": 3536,
      "Archite": 3537,
      "Mil": 3538,
      "aid": 3539,
      "bol": 3540,
      "tag": 3541,
      "support": 3542,
      "National": 3543,
      "imme": 3544,
      "near": 3545,
      "spent": 3546,
      "Markt": 3547,
      "Gedanken": 3548,
      "antwort": 3549,
      "ards": 3550,
      "langsam": 3551,
      "books": 3552,
      "ght": 3553,
      "uren": 3554,
      "bene": 3555,
      "wären": 3556,
      "Lassen": 3557,
      "ften": 3558,
      "zip": 3559,
      "lling": 3560,
      "Schwe": 3561,
      "krank": 3562,
      "Hilfe": 3563,
      "rent": 3564,
      "Grunde": 3565,
      "modern": 3566,
      "ults": 3567,
      "feet": 3568,
      "opportunity": 3569,
      "Fin": 3570,
      "result": 3571,
      "Unterschied": 3572,
      "shows": 3573,
      "weeks": 3574,
      "approach": 3575,
      "frei": 3576,
      "behand": 3577,
      "knowledge": 3578,
      "Tre": 3579,
      "passen": 3580,
      "ilar": 3581,
      "loc": 3582,
      "Sek": 3583,
      "humans": 3584,
      "äsent": 3585,
      "Mag": 3586,
      "ri": 3587,
      "antwor": 3588,
      "Wirtschaft": 3589,
      "damals": 3590,
      "falsch": 3591,
      "geführt": 3592,
      "gebracht": 3593,
      "achtet": 3594,
      "izing": 3595,
      "Plan": 3596,
      "Prin": 3597,
      "sitting": 3598,
      "ude": 3599,
      "Öl": 3600,
      "ouch": 3601,
      "Boden": 3602,
      "explo": 3603,
      "zogen": 3604,
      "isse": 3605,
      "gefühl": 3606,
      "urt": 3607,
      "obwohl": 3608,
      "Woche": 3609,
      "wn": 3610,
      "einzu": 3611,
      "ump": 3612,
      "dark": 3613,
      "write": 3614,
      "changes": 3615,
      "Staaten": 3616,
      "Right": 3617,
      "verd": 3618,
      "scious": 3619,
      "jedoch": 3620,
      "fli": 3621,
      "uses": 3622,
      "ades": 3623,
      "hervor": 3624,
      "uellen": 3625,
      "Ke": 3626,
      "trä": 3627,
      "trave": 3628,
      "Thema": 3629,
      "liebe": 3630,
      "democr": 3631,
      "lost": 3632,
      "Alter": 3633,
      "völlig": 3634,
      "stage": 3635,
      "andel": 3636,
      "Stand": 3637,
      "consider": 3638,
      "Modell": 3639,
      "Namen": 3640,
      "zellen": 3641,
      "Essen": 3642,
      "fluss": 3643,
      "count": 3644,
      "structure": 3645,
      "Kü": 3646,
      "Afghan": 3647,
      "dad": 3648,
      "esse": 3649,
      "entscheiden": 3650,
      "fortun": 3651,
      "Kranken": 3652,
      "political": 3653,
      "Mot": 3654,
      "anderer": 3655,
      "300": 3656,
      "ived": 3657,
      "selben": 3658,
      "virt": 3659,
      "ötzlich": 3660,
      "erlau": 3661,
      "animal": 3662,
      "respons": 3663,
      "measure": 3664,
      "chsel": 3665,
      "usion": 3666,
      "forest": 3667,
      "ains": 3668,
      "kleiner": 3669,
      "morning": 3670,
      "Lon": 3671,
      "cop": 3672,
      "tief": 3673,
      "zin": 3674,
      "aster": 3675,
      "weiten": 3676,
      "either": 3677,
      "kaufen": 3678,
      "olog": 3679,
      "conscious": 3680,
      "hosp": 3681,
      "gesetzt": 3682,
      "surface": 3683,
      "sichtlich": 3684,
      "21": 3685,
      "kn": 3686,
      "größte": 3687,
      "tat": 3688,
      "stein": 3689,
      "besteht": 3690,
      "sollen": 3691,
      "fragt": 3692,
      "telling": 3693,
      "rieb": 3694,
      "genauso": 3695,
      "schlecht": 3696,
      "wann": 3697,
      "entfern": 3698,
      "steme": 3699,
      "Monate": 3700,
      "giving": 3701,
      "nation": 3702,
      "rat": 3703,
      "univers": 3704,
      "tegr": 3705,
      "allo": 3706,
      "economy": 3707,
      "inv": 3708,
      "ernt": 3709,
      "average": 3710,
      "ente": 3711,
      "term": 3712,
      "Viele": 3713,
      "sehe": 3714,
      "agno": 3715,
      "troll": 3716,
      "challenge": 3717,
      "eat": 3718,
      "itet": 3719,
      "thet": 3720,
      "gemeinsam": 3721,
      "individual": 3722,
      "fight": 3723,
      "active": 3724,
      "wouldn": 3725,
      "product": 3726,
      "physical": 3727,
      "Ken": 3728,
      "thes": 3729,
      "versch": 3730,
      "Innov": 3731,
      "incredible": 3732,
      "fliegen": 3733,
      "reds": 3734,
      "arten": 3735,
      "abhäng": 3736,
      "essent": 3737,
      "patients": 3738,
      "Hoff": 3739,
      "app": 3740,
      "flanzen": 3741,
      "funktionieren": 3742,
      "Haupt": 3743,
      "Oze": 3744,
      "Zahl": 3745,
      "areas": 3746,
      "bottom": 3747,
      "cin": 3748,
      "fallen": 3749,
      "weis": 3750,
      "klein": 3751,
      "Kraft": 3752,
      "Gesicht": 3753,
      "ape": 3754,
      "buch": 3755,
      "vert": 3756,
      "zuvor": 3757,
      "werfen": 3758,
      "gelernt": 3759,
      "attention": 3760,
      "größten": 3761,
      "growing": 3762,
      "betrachten": 3763,
      "impact": 3764,
      "Super": 3765,
      "Yes": 3766,
      "stum": 3767,
      "Bewegung": 3768,
      "Fisch": 3769,
      "Nahr": 3770,
      "ustain": 3771,
      "sud": 3772,
      "gebung": 3773,
      "schwierig": 3774,
      "licht": 3775,
      "agieren": 3776,
      "mosp": 3777,
      "erinnern": 3778,
      "Our": 3779,
      "Wahl": 3780,
      "ichen": 3781,
      "issu": 3782,
      "Heute": 3783,
      "Liebe": 3784,
      "persön": 3785,
      "24": 3786,
      "gor": 3787,
      "sle": 3788,
      "uh": 3789,
      "ktor": 3790,
      "brought": 3791,
      "ival": 3792,
      "abil": 3793,
      "scht": 3794,
      "London": 3795,
      "Mich": 3796,
      "las": 3797,
      "ifft": 3798,
      "spro": 3799,
      "sudden": 3800,
      "Ländern": 3801,
      "Ster": 3802,
      "Tats": 3803,
      "emer": 3804,
      "gern": 3805,
      "late": 3806,
      "Zellen": 3807,
      "meaning": 3808,
      "Lösung": 3809,
      "messen": 3810,
      "chter": 3811,
      "Ander": 3812,
      "international": 3813,
      "realize": 3814,
      "erstör": 3815,
      "numbers": 3816,
      "ID": 3817,
      "unk": 3818,
      "gefähr": 3819,
      "trauen": 3820,
      "Familien": 3821,
      "Eis": 3822,
      "Frei": 3823,
      "onto": 3824,
      "ills": 3825,
      "erstaun": 3826,
      "zweite": 3827,
      "Fern": 3828,
      "fassen": 3829,
      "stra": 3830,
      "molec": 3831,
      "Ihren": 3832,
      "komplex": 3833,
      "forn": 3834,
      "trotz": 3835,
      "feeling": 3836,
      "scientists": 3837,
      "Hy": 3838,
      "Sto": 3839,
      "alone": 3840,
      "itze": 3841,
      "enten": 3842,
      "Revolution": 3843,
      "samkeit": 3844,
      "favor": 3845,
      "blood": 3846,
      "afr": 3847,
      "soon": 3848,
      "white": 3849,
      "unseres": 3850,
      "begin": 3851,
      "developed": 3852,
      "Krieg": 3853,
      "Unsere": 3854,
      "Nacht": 3855,
      "hil": 3856,
      "ibe": 3857,
      "phen": 3858,
      "stet": 3859,
      "benöt": 3860,
      "verbunden": 3861,
      "aliforn": 3862,
      "Bas": 3863,
      "pick": 3864,
      "loss": 3865,
      "sieben": 3866,
      "City": 3867,
      "stär": 3868,
      "weder": 3869,
      "Medik": 3870,
      "positive": 3871,
      "glücklich": 3872,
      "Labor": 3873,
      "South": 3874,
      "slow": 3875,
      "Versuch": 3876,
      "bitte": 3877,
      "größer": 3878,
      "Wissenschaftler": 3879,
      "Far": 3880,
      "Fil": 3881,
      "ückt": 3882,
      "auth": 3883,
      "playing": 3884,
      "dimens": 3885,
      "ouble": 3886,
      "seems": 3887,
      "images": 3888,
      "respon": 3889,
      "wrote": 3890,
      "alte": 3891,
      "hast": 3892,
      "Jeder": 3893,
      "Autos": 3894,
      "Kat": 3895,
      "lab": 3896,
      "sea": 3897,
      "idge": 3898,
      "jekte": 3899,
      "flus": 3900,
      "imagin": 3901,
      "changing": 3902,
      "frast": 3903,
      "Tele": 3904,
      "welches": 3905,
      "ordinary": 3906,
      "soph": 3907,
      "izieren": 3908,
      "Sehen": 3909,
      "color": 3910,
      "ras": 3911,
      "ators": 3912,
      "logen": 3913,
      "Test": 3914,
      "aktiv": 3915,
      "frastru": 3916,
      "uelle": 3917,
      "English": 3918,
      "nice": 3919,
      "schät": 3920,
      "useum": 3921,
      "igkeiten": 3922,
      "literally": 3923,
      "Tex": 3924,
      "asking": 3925,
      "revolution": 3926,
      "crit": 3927,
      "Prof": 3928,
      "transform": 3929,
      "Schritt": 3930,
      "climate": 3931,
      "San": 3932,
      "og": 3933,
      "schwar": 3934,
      "medic": 3935,
      "technologies": 3936,
      "understanding": 3937,
      "Bürger": 3938,
      "Wert": 3939,
      "rich": 3940,
      "erfol": 3941,
      "verbre": 3942,
      "verschw": 3943,
      "fear": 3944,
      "teilt": 3945,
      "Medien": 3946,
      "hundreds": 3947,
      "Mikro": 3948,
      "ering": 3949,
      "haft": 3950,
      "affe": 3951,
      "prochen": 3952,
      "cker": 3953,
      "tures": 3954,
      "herauszu": 3955,
      "running": 3956,
      "legt": 3957,
      "zeuge": 3958,
      "Bedeut": 3959,
      "draußen": 3960,
      "setzt": 3961,
      "gewesen": 3962,
      "produce": 3963,
      "sprach": 3964,
      "kosten": 3965,
      "unehmen": 3966,
      "wish": 3967,
      "theory": 3968,
      "starting": 3969,
      "bekannt": 3970,
      "Studenten": 3971,
      "Är": 3972,
      "erschaffen": 3973,
      "neigh": 3974,
      "aussehen": 3975,
      "mission": 3976,
      "Programm": 3977,
      "völkerung": 3978,
      "US": 3979,
      "lagen": 3980,
      "town": 3981,
      "Alle": 3982,
      "distr": 3983,
      "miles": 3984,
      "Natürlich": 3985,
      ".,": 3986,
      "tage": 3987,
      "ros": 3988,
      "ielle": 3989,
      "likely": 3990,
      "ends": 3991,
      "strong": 3992,
      "Technologien": 3993,
      "verbess": 3994,
      "stelle": 3995,
      "meln": 3996,
      "fällt": 3997,
      "issues": 3998,
      "fire": 3999,
      "mmer": 4000,
      "neg": 4001,
      "neur": 4002,
      "aging": 4003,
      "similar": 4004,
      "Blut": 4005,
      "Gemeinschaft": 4006,
      "geworden": 4007,
      "Verbindung": 4008,
      "serious": 4009,
      "Dam": 4010,
      "sof": 4011,
      "isieren": 4012,
      "creating": 4013,
      "anyone": 4014,
      "Alles": 4015,
      "sil": 4016,
      "getr": 4017,
      "round": 4018,
      "optim": 4019,
      "spread": 4020,
      "ulture": 4021,
      "zeitig": 4022,
      "audience": 4023,
      "beeinflus": 4024,
      "Führ": 4025,
      "Ser": 4026,
      "zeige": 4027,
      "Park": 4028,
      "Muster": 4029,
      "tö": 4030,
      "Größ": 4031,
      "holen": 4032,
      "Wahrheit": 4033,
      "erklären": 4034,
      "Kamp": 4035,
      "gliche": 4036,
      "vill": 4037,
      "requ": 4038,
      "icy": 4039,
      "ummer": 4040,
      "passieren": 4041,
      "visual": 4042,
      "generation": 4043,
      "electric": 4044,
      "psycholog": 4045,
      "Technik": 4046,
      "sustain": 4047,
      "stark": 4048,
      "ikaner": 4049,
      "Dav": 4050,
      "eth": 4051,
      "lay": 4052,
      "ube": 4053,
      "jemals": 4054,
      "mache": 4055,
      "ünstler": 4056,
      "Tatsache": 4057,
      "civil": 4058,
      "Verl": 4059,
      "Reihe": 4060,
      "gives": 4061,
      "iod": 4062,
      "stie": 4063,
      "letzt": 4064,
      "geboren": 4065,
      "development": 4066,
      "tools": 4067,
      "Ben": 4068,
      "Sol": 4069,
      "Wach": 4070,
      "uni": 4071,
      "blick": 4072,
      "gessen": 4073,
      "experien": 4074,
      "Tit": 4075,
      "ehen": 4076,
      "ctors": 4077,
      "zens": 4078,
      "center": 4079,
      "avail": 4080,
      "gegenüber": 4081,
      "millions": 4082,
      "Rad": 4083,
      "atten": 4084,
      "beste": 4085,
      "dead": 4086,
      "wasser": 4087,
      "trust": 4088,
      "pekt": 4089,
      "moved": 4090,
      "iko": 4091,
      "fail": 4092,
      "suggest": 4093,
      "Rück": 4094,
      "sonst": 4095,
      "Mars": 4096,
      "rap": 4097,
      "bege": 4098,
      "bert": 4099,
      "griff": 4100,
      "unterstüt": 4101,
      "Metho": 4102,
      "gingen": 4103,
      "connect": 4104,
      "Afghanistan": 4105,
      "Ris": 4106,
      "Tat": 4107,
      "bist": 4108,
      "benef": 4109,
      "deshalb": 4110,
      "Jahrhundert": 4111,
      "cially": 4112,
      "joy": 4113,
      "CO2": 4114,
      "gain": 4115,
      "sive": 4116,
      "aul": 4117,
      "verbin": 4118,
      "scheinen": 4119,
      "konzentr": 4120,
      "spricht": 4121,
      "legal": 4122,
      "Forschung": 4123,
      "Who": 4124,
      "poin": 4125,
      "itzen": 4126,
      "achie": 4127,
      "daraus": 4128,
      "möchten": 4129,
      "erfolgre": 4130,
      "proper": 4131,
      "cars": 4132,
      "gent": 4133,
      "tex": 4134,
      "llo": 4135,
      "wart": 4136,
      "seem": 4137,
      "Platz": 4138,
      "Hin": 4139,
      "Met": 4140,
      "tä": 4141,
      "übr": 4142,
      "inger": 4143,
      "gezeigt": 4144,
      "Vortrag": 4145,
      "Richtung": 4146,
      "With": 4147,
      "bom": 4148,
      "för": 4149,
      "ses": 4150,
      "xy": 4151,
      "denkt": 4152,
      "wider": 4153,
      "miteinander": 4154,
      "convers": 4155,
      "kleines": 4156,
      "strateg": 4157,
      "Krankheit": 4158,
      "kept": 4159,
      "ified": 4160,
      "hnung": 4161,
      "haup": 4162,
      "truth": 4163,
      "absolutely": 4164,
      "Besch": 4165,
      "ried": 4166,
      "bilden": 4167,
      "schrieb": 4168,
      "neben": 4169,
      "Anzahl": 4170,
      "örter": 4171,
      "movement": 4172,
      "Bar": 4173,
      "Rich": 4174,
      "Sicht": 4175,
      "Tatsächlich": 4176,
      "rom": 4177,
      "sold": 4178,
      "among": 4179,
      "forms": 4180,
      "Aben": 4181,
      "Vo": 4182,
      "eye": 4183,
      "atom": 4184,
      "iled": 4185,
      "deckt": 4186,
      "vention": 4187,
      "choice": 4188,
      "discovered": 4189,
      "nel": 4190,
      "Einige": 4191,
      "Genau": 4192,
      "verloren": 4193,
      "Op": 4194,
      "mung": 4195,
      "anfangen": 4196,
      "leist": 4197,
      "total": 4198,
      "deli": 4199,
      "grü": 4200,
      "brechen": 4201,
      "voice": 4202,
      "circ": 4203,
      "pan": 4204,
      "verste": 4205,
      "pecially": 4206,
      "plötzlich": 4207,
      "designed": 4208,
      "Aufgabe": 4209,
      "showed": 4210,
      "beginnt": 4211,
      "itäten": 4212,
      "Situation": 4213,
      "By": 4214,
      "track": 4215,
      "lieb": 4216,
      "fühle": 4217,
      "Geschä": 4218,
      "function": 4219,
      "current": 4220,
      "zeugt": 4221,
      "recently": 4222,
      "Häl": 4223,
      "ikel": 4224,
      "kop": 4225,
      "wes": 4226,
      "nachdem": 4227,
      "solve": 4228,
      "nehmer": 4229,
      "Ihrem": 4230,
      "drop": 4231,
      "danach": 4232,
      "flow": 4233,
      "lant": 4234,
      "niemals": 4235,
      "beschäft": 4236,
      "developing": 4237,
      "Hel": 4238,
      "Where": 4239,
      "Zwe": 4240,
      "mater": 4241,
      "source": 4242,
      "enth": 4243,
      "chance": 4244,
      "bekommt": 4245,
      "verwand": 4246,
      "Stimme": 4247,
      "selbe": 4248,
      "Umgebung": 4249,
      "Look": 4250,
      "Him": 4251,
      "iation": 4252,
      "sitzen": 4253,
      "Deshalb": 4254,
      "Christ": 4255,
      "Fuß": 4256,
      "sty": 4257,
      "refle": 4258,
      "ängen": 4259,
      "centr": 4260,
      "inos": 4261,
      "ances": 4262,
      "repr": 4263,
      "door": 4264,
      "guess": 4265,
      "Chinese": 4266,
      "cen": 4267,
      "hit": 4268,
      "inne": 4269,
      "Erfolg": 4270,
      "predict": 4271,
      "Nie": 4272,
      "ado": 4273,
      "ales": 4274,
      "imin": 4275,
      "Red": 4276,
      "list": 4277,
      "hinein": 4278,
      "talked": 4279,
      "focus": 4280,
      "Städte": 4281,
      "Face": 4282,
      "egal": 4283,
      "asing": 4284,
      "ores": 4285,
      "Bewusst": 4286,
      "ption": 4287,
      "carbon": 4288,
      "situation": 4289,
      "sofort": 4290,
      "länger": 4291,
      "guten": 4292,
      "Phys": 4293,
      "connected": 4294,
      "verwendet": 4295,
      "Austr": 4296,
      "Eigen": 4297,
      "ased": 4298,
      "bey": 4299,
      "bekam": 4300,
      "aufge": 4301,
      "conf": 4302,
      "knows": 4303,
      "nachzu": 4304,
      "nachdenken": 4305,
      "hinaus": 4306,
      "writing": 4307,
      "Produkt": 4308,
      "Studie": 4309,
      "industry": 4310,
      "Miss": 4311,
      "Rel": 4312,
      "Brit": 4313,
      "shape": 4314,
      "available": 4315,
      "Rolle": 4316,
      "integr": 4317,
      "period": 4318,
      "änge": 4319,
      "änden": 4320,
      "komp": 4321,
      "Reise": 4322,
      "uell": 4323,
      "Ihrer": 4324,
      "Mathemat": 4325,
      "komplett": 4326,
      "Realität": 4327,
      "Psy": 4328,
      "hom": 4329,
      "zahlen": 4330,
      "deta": 4331,
      "See": 4332,
      "gewalt": 4333,
      "Bildung": 4334,
      "Straßen": 4335,
      "Entscheidungen": 4336,
      "bio": 4337,
      "kor": 4338,
      "mann": 4339,
      "zel": 4340,
      "igent": 4341,
      "machten": 4342,
      "kontroll": 4343,
      "bsite": 4344,
      "ille": 4345,
      "üssel": 4346,
      "curity": 4347,
      "innovation": 4348,
      "touch": 4349,
      "org": 4350,
      "dress": 4351,
      "Tem": 4352,
      "speed": 4353,
      "geschrieben": 4354,
      "hundred": 4355,
      "genannt": 4356,
      "ennen": 4357,
      "thre": 4358,
      "haven": 4359,
      "resources": 4360,
      "Vorstellung": 4361,
      "stood": 4362,
      "reasons": 4363,
      "Gewalt": 4364,
      "entfernt": 4365,
      "Bedeutung": 4366,
      "attr": 4367,
      "leid": 4368,
      "user": 4369,
      "ultim": 4370,
      "save": 4371,
      "Blick": 4372,
      "jemanden": 4373,
      "subject": 4374,
      "Während": 4375,
      "Aktiv": 4376,
      "Sh": 4377,
      "Stat": 4378,
      "solution": 4379,
      "Druck": 4380,
      "evidence": 4381,
      "enorm": 4382,
      "Hälfte": 4383,
      "Bewusstsein": 4384,
      "fix": 4385,
      "record": 4386,
      "becomes": 4387,
      "genie": 4388,
      "ulate": 4389,
      "pictures": 4390,
      "computers": 4391,
      "Größe": 4392,
      "David": 4393,
      "unkte": 4394,
      "Schü": 4395,
      "motiv": 4396,
      "incredibly": 4397,
      "Veränderung": 4398,
      "Herausforderung": 4399,
      "400": 4400,
      "Dor": 4401,
      "Tür": 4402,
      "isiert": 4403,
      "tiny": 4404,
      "weltweit": 4405,
      "milit": 4406,
      "Maschine": 4407,
      "Preis": 4408,
      "Bio": 4409,
      "Kolle": 4410,
      "lines": 4411,
      "anze": 4412,
      "lived": 4413,
      "boy": 4414,
      "Teile": 4415,
      "ichtet": 4416,
      "involved": 4417,
      "Cl": 4418,
      "sat": 4419,
      "stes": 4420,
      "necess": 4421,
      "ierungen": 4422,
      "greifen": 4423,
      "Sonnen": 4424,
      "Such": 4425,
      "games": 4426,
      "nine": 4427,
      "especially": 4428,
      "aly": 4429,
      "lei": 4430,
      "atell": 4431,
      "solar": 4432,
      "Generation": 4433,
      "fundamental": 4434,
      "Demokrat": 4435,
      "gorith": 4436,
      "stimmt": 4437,
      "rael": 4438,
      "North": 4439,
      "soziale": 4440,
      "hoffe": 4441,
      "code": 4442,
      "agement": 4443,
      "blind": 4444,
      "marke": 4445,
      "effective": 4446,
      "Sc": 4447,
      "ehr": 4448,
      "benutzt": 4449,
      "network": 4450,
      "Amerika": 4451,
      "Fehler": 4452,
      "Eink": 4453,
      "raus": 4454,
      "search": 4455,
      "Sau": 4456,
      "pul": 4457,
      "degre": 4458,
      "allein": 4459,
      "gesprochen": 4460,
      "treten": 4461,
      "voller": 4462,
      "bein": 4463,
      "ram": 4464,
      "rid": 4465,
      "teile": 4466,
      "decken": 4467,
      "hlte": 4468,
      "Sym": 4469,
      "Meinung": 4470,
      "table": 4471,
      "onstr": 4472,
      "mob": 4473,
      "struct": 4474,
      "Experiment": 4475,
      "Aut": 4476,
      "fon": 4477,
      "nuc": 4478,
      "oid": 4479,
      "rain": 4480,
      "zutage": 4481,
      "schließen": 4482,
      "except": 4483,
      "compassion": 4484,
      "putting": 4485,
      "häre": 4486,
      "baby": 4487,
      "Facebook": 4488,
      ".“": 4489,
      "sahen": 4490,
      "trolle": 4491,
      "mäß": 4492,
      "erk": 4493,
      "erreicht": 4494,
      "weisen": 4495,
      "attack": 4496,
      "bigger": 4497,
      "girls": 4498,
      "Sex": 4499,
      "uit": 4500,
      "frage": 4501,
      "concept": 4502,
      "Kno": 4503,
      "fs": 4504,
      "isierung": 4505,
      "beide": 4506,
      "gekommen": 4507,
      "Geist": 4508,
      "medi": 4509,
      "schneller": 4510,
      "First": 4511,
      "Wind": 4512,
      "Hey": 4513,
      "Prinzip": 4514,
      "bacter": 4515,
      "len": 4516,
      "zz": 4517,
      "isst": 4518,
      "peace": 4519,
      "conv": 4520,
      "drive": 4521,
      "surpris": 4522,
      "several": 4523,
      "East": 4524,
      "Hinter": 4525,
      "Nur": 4526,
      "Von": 4527,
      "lage": 4528,
      "gebe": 4529,
      "icans": 4530,
      "olz": 4531,
      "hinzu": 4532,
      "Strom": 4533,
      "absolut": 4534,
      "Of": 4535,
      "smo": 4536,
      "mental": 4537,
      "Mitte": 4538,
      "Firma": 4539,
      "Iran": 4540,
      "message": 4541,
      "beyond": 4542,
      "bestimmt": 4543,
      "näher": 4544,
      "pack": 4545,
      "abzu": 4546,
      "medical": 4547,
      "medizin": 4548,
      "jenigen": 4549,
      "Col": 4550,
      "Mex": 4551,
      "orge": 4552,
      "toll": 4553,
      "shop": 4554,
      "elektr": 4555,
      "dachten": 4556,
      "lif": 4557,
      "sau": 4558,
      "itation": 4559,
      "arily": 4560,
      "wechsel": 4561,
      "iers": 4562,
      "industr": 4563,
      "fts": 4564,
      "ote": 4565,
      "const": 4566,
      "wenden": 4567,
      "198": 4568,
      "general": 4569,
      "groups": 4570,
      "fam": 4571,
      "rules": 4572,
      "software": 4573,
      "ierend": 4574,
      "stellten": 4575,
      "links": 4576,
      "hielt": 4577,
      "äh": 4578,
      "halte": 4579,
      "rais": 4580,
      "Nachrichten": 4581,
      "Straße": 4582,
      "läuft": 4583,
      "TV": 4584,
      "wear": 4585,
      "umb": 4586,
      "komme": 4587,
      "clin": 4588,
      "ären": 4589,
      "atures": 4590,
      "interessiert": 4591,
      "capital": 4592,
      "Kosten": 4593,
      "Vereinigten": 4594,
      "IDS": 4595,
      "Pal": 4596,
      "Will": 4597,
      "mine": 4598,
      "zerstör": 4599,
      "towards": 4600,
      "abo": 4601,
      "ference": 4602,
      "finde": 4603,
      "Meter": 4604,
      "direct": 4605,
      "Maybe": 4606,
      "Bakter": 4607,
      "evol": 4608,
      "uals": 4609,
      "itor": 4610,
      "ify": 4611,
      "daher": 4612,
      "interact": 4613,
      "azy": 4614,
      "happiness": 4615,
      "Sonne": 4616,
      "bildung": 4617,
      "div": 4618,
      "testen": 4619,
      "Schauen": 4620,
      "öffentlichen": 4621,
      "Beziehung": 4622,
      "sleep": 4623,
      "Zahlen": 4624,
      "sand": 4625,
      "enden": 4626,
      "bewer": 4627,
      "Mole": 4628,
      "dynam": 4629,
      "screen": 4630,
      "zunehmen": 4631,
      "ously": 4632,
      "memory": 4633,
      "Medizin": 4634,
      "Kommun": 4635,
      "Europa": 4636,
      "character": 4637,
      "device": 4638,
      "IT": 4639,
      "Mc": 4640,
      "danger": 4641,
      "iber": 4642,
      "throw": 4643,
      "Jahrzehn": 4644,
      "histor": 4645,
      "nahe": 4646,
      "gedacht": 4647,
      "Karte": 4648,
      "Fle": 4649,
      "Hir": 4650,
      "mm": 4651,
      "steigen": 4652,
      "bedeuten": 4653,
      "inosaur": 4654,
      "Vol": 4655,
      "Maß": 4656,
      "walking": 4657,
      "effic": 4658,
      "Hum": 4659,
      "ieht": 4660,
      "ites": 4661,
      "utr": 4662,
      "terror": 4663,
      "lip": 4664,
      "progress": 4665,
      "intro": 4666,
      "faszin": 4667,
      "psych": 4668,
      "erfor": 4669,
      "gearbeitet": 4670,
      "forman": 4671,
      "spl": 4672,
      "particularly": 4673,
      "fro": 4674,
      "befinden": 4675,
      "anybody": 4676,
      "Fähigkeiten": 4677,
      "Gol": 4678,
      "tar": 4679,
      "erkann": 4680,
      "schlag": 4681,
      "neues": 4682,
      "potential": 4683,
      "bewegt": 4684,
      "Hoffnung": 4685,
      "hot": 4686,
      "office": 4687,
      "smart": 4688,
      "zero": 4689,
      "transport": 4690,
      "Ergebnis": 4691,
      "erfolgreich": 4692,
      "sion": 4693,
      "Arab": 4694,
      "geschieht": 4695,
      "Mitgefühl": 4696,
      "Papier": 4697,
      "ai": 4698,
      "mächt": 4699,
      "rece": 4700,
      "lok": 4701,
      "Männ": 4702,
      "habt": 4703,
      "scientific": 4704,
      "photograph": 4705,
      "ny": 4706,
      "wal": 4707,
      "nennt": 4708,
      "feld": 4709,
      "mers": 4710,
      "einfache": 4711,
      "minute": 4712,
      "irgendwo": 4713,
      "Israel": 4714,
      "Elektr": 4715,
      "appear": 4716,
      "hungen": 4717,
      "lag": 4718,
      "ore": 4719,
      "itch": 4720,
      "urban": 4721,
      "pound": 4722,
      "sounds": 4723,
      "sozialen": 4724,
      "eco": 4725,
      "nein": 4726,
      "ran": 4727,
      "pair": 4728,
      "protect": 4729,
      "herauszufinden": 4730,
      "wesen": 4731,
      "Erd": 4732,
      "Arm": 4733,
      "schieden": 4734,
      "drugs": 4735,
      "bul": 4736,
      "Flü": 4737,
      "Gruppen": 4738,
      "begannen": 4739,
      "blich": 4740,
      "moder": 4741,
      "store": 4742,
      "University": 4743,
      "Politik": 4744,
      "AIDS": 4745,
      "dro": 4746,
      "anstatt": 4747,
      "ably": 4748,
      "wide": 4749,
      "ikal": 4750,
      "showing": 4751,
      "starts": 4752,
      "certainly": 4753,
      "wichtiger": 4754,
      "extrem": 4755,
      "massive": 4756,
      "intelligen": 4757,
      "Software": 4758,
      "aim": 4759,
      "gehe": 4760,
      "ips": 4761,
      "basic": 4762,
      "schools": 4763,
      "temper": 4764,
      "Fortschr": 4765,
      "Oberfläche": 4766,
      "Ker": 4767,
      "Ru": 4768,
      "raum": 4769,
      "erwä": 4770,
      "largest": 4771,
      "profit": 4772,
      "gesamte": 4773,
      "kompli": 4774,
      "cam": 4775,
      "security": 4776,
      "movie": 4777,
      "ometer": 4778,
      "confl": 4779,
      "examples": 4780,
      "Islam": 4781,
      "Bücher": 4782,
      "tw": 4783,
      "antly": 4784,
      "dram": 4785,
      "block": 4786,
      "student": 4787,
      "Hoch": 4788,
      "Los": 4789,
      "camera": 4790,
      "junge": 4791,
      "mü": 4792,
      "prä": 4793,
      "Any": 4794,
      "biggest": 4795,
      "Spa": 4796,
      "bung": 4797,
      "caus": 4798,
      "loy": 4799,
      "region": 4800,
      "clean": 4801,
      "join": 4802,
      "Chem": 4803,
      "hre": 4804,
      "mail": 4805,
      "version": 4806,
      "Evolution": 4807,
      "Glau": 4808,
      "comfort": 4809,
      "Ange": 4810,
      "großer": 4811,
      "stream": 4812,
      "After": 4813,
      "domin": 4814,
      "journey": 4815,
      "totally": 4816,
      "Künstler": 4817,
      "zten": 4818,
      "separ": 4819,
      "verurs": 4820,
      "span": 4821,
      "print": 4822,
      "core": 4823,
      "natür": 4824,
      "Entwicklungs": 4825,
      "emotional": 4826,
      "violence": 4827,
      "150": 4828,
      "sinn": 4829,
      "represent": 4830,
      "ley": 4831,
      "web": 4832,
      "zuerst": 4833,
      "formen": 4834,
      "Leiden": 4835,
      "wirkungen": 4836,
      "sky": 4837,
      "ghter": 4838,
      "projects": 4839,
      "Auch": 4840,
      "ots": 4841,
      "ativen": 4842,
      "perspe": 4843,
      "crazy": 4844,
      "disc": 4845,
      "obviously": 4846,
      "introdu": 4847,
      "Det": 4848,
      "Wür": 4849,
      "uen": 4850,
      "lower": 4851,
      "ada": 4852,
      "ienst": 4853,
      "Bevölkerung": 4854,
      "Seiten": 4855,
      "gleichzeitig": 4856,
      "iction": 4857,
      "tausende": 4858,
      "plicated": 4859,
      "schreck": 4860,
      "activity": 4861,
      "bestimmten": 4862,
      "materials": 4863,
      "Wörter": 4864,
      "ami": 4865,
      "nobody": 4866,
      "creative": 4867,
      "Arbeits": 4868,
      "wussten": 4869,
      "Baby": 4870,
      "birth": 4871,
      "glie": 4872,
      "sell": 4873,
      "mount": 4874,
      "Behand": 4875,
      "igens": 4876,
      "Wieder": 4877,
      "führte": 4878,
      "Studien": 4879,
      "Are": 4880,
      "kür": 4881,
      "lap": 4882,
      "beweg": 4883,
      "schaut": 4884,
      "mode": 4885,
      "dop": 4886,
      "Beg": 4887,
      "inken": 4888,
      "passierte": 4889,
      "particip": 4890,
      "exciting": 4891,
      "Russ": 4892,
      "nüt": 4893,
      "secre": 4894,
      "expen": 4895,
      "pover": 4896,
      "wants": 4897,
      "standing": 4898,
      "cris": 4899,
      "teachers": 4900,
      "Schulen": 4901,
      "merksamkeit": 4902,
      "further": 4903,
      "neighbor": 4904,
      "oul": 4905,
      "nete": 4906,
      "occur": 4907,
      "page": 4908,
      "apart": 4909,
      "hnt": 4910,
      "carry": 4911,
      "neuro": 4912,
      "leader": 4913,
      "ähnlich": 4914,
      "extremely": 4915,
      "45": 4916,
      "idem": 4917,
      "labor": 4918,
      "meant": 4919,
      "Betr": 4920,
      "ideos": 4921,
      "Erinner": 4922,
      "wählen": 4923,
      "Konzept": 4924,
      "Aufmerksamkeit": 4925,
      "calc": 4926,
      "wichtige": 4927,
      "früher": 4928,
      "Oper": 4929,
      "Pflanzen": 4930,
      "ickt": 4931,
      "higher": 4932,
      "versuchte": 4933,
      "Bank": 4934,
      "Zentr": 4935,
      "stick": 4936,
      "supposed": 4937,
      "private": 4938,
      "favorite": 4939,
      "Bi": 4940,
      "Fun": 4941,
      "ansehen": 4942,
      "amin": 4943,
      "notice": 4944,
      "Reaktion": 4945,
      "altung": 4946,
      "named": 4947,
      "faster": 4948,
      "Bot": 4949,
      "Morgen": 4950,
      "Uhr": 4951,
      "seite": 4952,
      "edom": 4953,
      "Regeln": 4954,
      "iziert": 4955,
      "native": 4956,
      "arbeitete": 4957,
      "fortunately": 4958,
      "Dorf": 4959,
      "Bill": 4960,
      "Hü": 4961,
      "Ress": 4962,
      "tie": 4963,
      "role": 4964,
      "genes": 4965,
      "aff": 4966,
      "plants": 4967,
      "Jahrhunder": 4968,
      "everywhere": 4969,
      "results": 4970,
      "schluss": 4971,
      "kümmer": 4972,
      "Typ": 4973,
      "rechts": 4974,
      "Demokratie": 4975,
      "citi": 4976,
      "verlassen": 4977,
      "senden": 4978,
      "mend": 4979,
      "quant": 4980,
      "produzieren": 4981,
      "schlagen": 4982,
      "indest": 4983,
      "Tau": 4984,
      "isions": 4985,
      "deten": 4986,
      "brit": 4987,
      "volle": 4988,
      "struction": 4989,
      "jobs": 4990,
      "Können": 4991,
      "worse": 4992,
      "choose": 4993,
      "communities": 4994,
      "multi": 4995,
      "Gu": 4996,
      "tschafts": 4997,
      "era": 4998,
      "gegangen": 4999,
      "abge": 5000,
      "assum": 5001,
      "Orte": 5002,
      "bessere": 5003,
      "Firmen": 5004,
      "poverty": 5005,
      "35": 5006,
      "Lauf": 5007,
      "icle": 5008,
      "Armut": 5009,
      "füll": 5010,
      "flü": 5011,
      "grew": 5012,
      "Monaten": 5013,
      "öffentlich": 5014,
      "models": 5015,
      "kämpfen": 5016,
      "Ozean": 5017,
      "response": 5018,
      "99": 5019,
      "Gut": 5020,
      "Hä": 5021,
      "jung": 5022,
      "lex": 5023,
      "ables": 5024,
      "uchs": 5025,
      "drücken": 5026,
      "Most": 5027,
      "zeichnet": 5028,
      "äumen": 5029,
      "Zust": 5030,
      "thin": 5031,
      "igr": 5032,
      "Einfluss": 5033,
      "Amerikaner": 5034,
      "skin": 5035,
      "morgen": 5036,
      "leaders": 5037,
      "individuals": 5038,
      "continue": 5039,
      "Ner": 5040,
      "cat": 5041,
      "mist": 5042,
      "ended": 5043,
      "chst": 5044,
      "bleibt": 5045,
      "Washing": 5046,
      "waste": 5047,
      "Mehr": 5048,
      "watching": 5049,
      "democracy": 5050,
      "2000": 5051,
      "Mr": 5052,
      "wild": 5053,
      "ourcen": 5054,
      "prü": 5055,
      "merz": 5056,
      "eventually": 5057,
      "beobachten": 5058,
      "Himmel": 5059,
      "75": 5060,
      "dlich": 5061,
      "ring": 5062,
      "stor": 5063,
      "secon": 5064,
      "Theorie": 5065,
      "willing": 5066,
      "diagno": 5067,
      "Folgen": 5068,
      "improve": 5069,
      "verbessern": 5070,
      "Wand": 5071,
      "ather": 5072,
      "iar": 5073,
      "brand": 5074,
      "poll": 5075,
      "trees": 5076,
      "Kontrolle": 5077,
      "allowed": 5078,
      "Innovation": 5079,
      "Schüler": 5080,
      "Baum": 5081,
      "Even": 5082,
      "lauf": 5083,
      "äfte": 5084,
      "vergessen": 5085,
      "schuld": 5086,
      "Sohn": 5087,
      "Nachbar": 5088,
      "ength": 5089,
      "spirit": 5090,
      "mobile": 5091,
      "Washington": 5092,
      "Gel": 5093,
      "Stelle": 5094,
      "rand": 5095,
      "sele": 5096,
      "ently": 5097,
      "worfen": 5098,
      "prakt": 5099,
      "song": 5100,
      "Eines": 5101,
      "tells": 5102,
      "uding": 5103,
      "richtigen": 5104,
      "einzelne": 5105,
      "Mü": 5106,
      "zies": 5107,
      "verstanden": 5108,
      "context": 5109,
      "ibute": 5110,
      "astic": 5111,
      "ihres": 5112,
      "großes": 5113,
      "buildings": 5114,
      "African": 5115,
      "richtige": 5116,
      "safe": 5117,
      "witter": 5118,
      "Molekü": 5119,
      "bunch": 5120,
      "zimmer": 5121,
      "weight": 5122,
      "shot": 5123,
      "hinder": 5124,
      "Zeug": 5125,
      "lands": 5126,
      "offensichtlich": 5127,
      "teacher": 5128,
      "zeichnen": 5129,
      "Act": 5130,
      "Niger": 5131,
      "begr": 5132,
      "dog": 5133,
      "uffer": 5134,
      "ünft": 5135,
      "Gesetz": 5136,
      "Menschheit": 5137,
      "prison": 5138,
      "Terror": 5139,
      "suddenly": 5140,
      "nuclear": 5141,
      "Tur": 5142,
      "fäng": 5143,
      "site": 5144,
      "bridge": 5145,
      "Vergangen": 5146,
      "akes": 5147,
      "Zugang": 5148,
      "häuf": 5149,
      "fertig": 5150,
      "Del": 5151,
      "Sand": 5152,
      "camp": 5153,
      "etc": 5154,
      "Franc": 5155,
      "hörte": 5156,
      "extraordinary": 5157,
      "hospital": 5158,
      "ston": 5159,
      "goal": 5160,
      "wait": 5161,
      "sucht": 5162,
      "England": 5163,
      "ilosoph": 5164,
      "essentially": 5165,
      "Glo": 5166,
      "anda": 5167,
      "immedi": 5168,
      "takt": 5169,
      "plane": 5170,
      "Gebiet": 5171,
      "colleag": 5172,
      "collabor": 5173,
      "fit": 5174,
      "rea": 5175,
      "abr": 5176,
      "doctor": 5177,
      "diesel": 5178,
      "shown": 5179,
      "kommun": 5180,
      "Ord": 5181,
      "ktionen": 5182,
      "gewinnen": 5183,
      "brains": 5184,
      "sorts": 5185,
      "windigkeit": 5186,
      "objects": 5187,
      "killed": 5188,
      "card": 5189,
      "Orten": 5190,
      "medicine": 5191,
      "Relig": 5192,
      "van": 5193,
      "impossible": 5194,
      "prot": 5195,
      "Invest": 5196,
      "demonstr": 5197,
      "Recht": 5198,
      "finding": 5199,
      "Daher": 5200,
      "minds": 5201,
      "training": 5202,
      "galax": 5203,
      "deine": 5204,
      "onent": 5205,
      "roll": 5206,
      "robo": 5207,
      "afen": 5208,
      "ustrie": 5209,
      "apt": 5210,
      "standard": 5211,
      "conditions": 5212,
      "specific": 5213,
      "healthy": 5214,
      "Worte": 5215,
      "taught": 5216,
      "Krankheiten": 5217,
      "village": 5218,
      "Geschäfts": 5219,
      "temp": 5220,
      "Wohl": 5221,
      "Universität": 5222,
      "Entscheidung": 5223,
      "bemerken": 5224,
      "Francis": 5225,
      "wife": 5226,
      "doc": 5227,
      "Priv": 5228,
      "Beispiele": 5229,
      "allows": 5230,
      "retten": 5231,
      "formance": 5232,
      "Vergangenheit": 5233,
      "einge": 5234,
      "prob": 5235,
      "uchen": 5236,
      "complicated": 5237,
      "kannst": 5238,
      "ferenz": 5239,
      "versuche": 5240,
      "Gerät": 5241,
      "verlieren": 5242,
      "Galax": 5243,
      "points": 5244,
      "wever": 5245,
      "load": 5246,
      "agree": 5247,
      "hero": 5248,
      "herr": 5249,
      "somewhere": 5250,
      "erzählt": 5251,
      "erlaubt": 5252,
      "Ad": 5253,
      "Twitter": 5254,
      "luck": 5255,
      "usually": 5256,
      "quar": 5257,
      "Grenzen": 5258,
      "erstoff": 5259,
      "neuer": 5260,
      "pull": 5261,
      "pieces": 5262,
      "Feuer": 5263,
      "indeed": 5264,
      "Spaß": 5265,
      "Vö": 5266,
      "cases": 5267,
      "mix": 5268,
      "wise": 5269,
      "anschauen": 5270,
      "schir": 5271,
      "Gene": 5272,
      "dauer": 5273,
      "Kommunik": 5274,
      "Bro": 5275,
      "Ef": 5276,
      "Jed": 5277,
      "Nummer": 5278,
      "Tom": 5279,
      "auer": 5280,
      "older": 5281,
      "combin": 5282,
      "Those": 5283,
      "Leist": 5284,
      "Personen": 5285,
      "instit": 5286,
      "signific": 5287,
      "Sam": 5288,
      "Talk": 5289,
      "langen": 5290,
      "gene": 5291,
      "handelt": 5292,
      "products": 5293,
      "increase": 5294,
      "larger": 5295,
      "ständnis": 5296,
      "Today": 5297,
      "including": 5298,
      "ruption": 5299,
      "Wirklichkeit": 5300,
      "Sekunden": 5301,
      "travel": 5302,
      "author": 5303,
      "nachzudenken": 5304,
      "above": 5305,
      "Tagen": 5306,
      "echt": 5307,
      "ka": 5308,
      "öp": 5309,
      "chair": 5310,
      "compet": 5311,
      "cope": 5312,
      "Nachricht": 5313,
      "legenheit": 5314,
      "höher": 5315,
      "symbol": 5316,
      "princi": 5317,
      "Richard": 5318,
      "Ed": 5319,
      "Kä": 5320,
      "äte": 5321,
      "grup": 5322,
      "Bet": 5323,
      "Büh": 5324,
      "Sign": 5325,
      "erzeugen": 5326,
      "etze": 5327,
      "opt": 5328,
      "Stamm": 5329,
      "Regen": 5330,
      "Ebene": 5331,
      "cas": 5332,
      "mber": 5333,
      "aussieht": 5334,
      "lief": 5335,
      "zumindest": 5336,
      "fähig": 5337,
      "production": 5338,
      "Gesundheits": 5339,
      "truly": 5340,
      "analys": 5341,
      "Nahrung": 5342,
      "Bakterien": 5343,
      "High": 5344,
      "Pos": 5345,
      "cross": 5346,
      "überras": 5347,
      "selts": 5348,
      "fold": 5349,
      "Präs": 5350,
      "Like": 5351,
      "Sen": 5352,
      "ented": 5353,
      "insp": 5354,
      "influ": 5355,
      "report": 5356,
      "perform": 5357,
      "Schön": 5358,
      "Transp": 5359,
      "reading": 5360,
      "service": 5361,
      "automat": 5362,
      "kaum": 5363,
      "remark": 5364,
      "sodass": 5365,
      "ico": 5366,
      "loved": 5367,
      "weren": 5368,
      "auchen": 5369,
      "earl": 5370,
      "interessante": 5371,
      "valu": 5372,
      "Spezies": 5373,
      "continu": 5374,
      "Instit": 5375,
      "conversation": 5376,
      "Zwei": 5377,
      "teten": 5378,
      "imal": 5379,
      "manche": 5380,
      "ulpt": 5381,
      "prec": 5382,
      "series": 5383,
      "beings": 5384,
      "police": 5385,
      "glob": 5386,
      "types": 5387,
      "Haut": 5388,
      "erhö": 5389,
      "traum": 5390,
      "attle": 5391,
      "decision": 5392,
      "written": 5393,
      "Chance": 5394,
      "launch": 5395,
      "kurze": 5396,
      "ativity": 5397,
      "bestimmte": 5398,
      "oxy": 5399,
      "tree": 5400,
      "äre": 5401,
      "öst": 5402,
      "grade": 5403,
      "Geheim": 5404,
      "Objekt": 5405,
      "window": 5406,
      "gesamten": 5407,
      "bieten": 5408,
      "achieve": 5409,
      "bacteria": 5410,
      "crisis": 5411,
      "Kern": 5412,
      "Mor": 5413,
      "Tal": 5414,
      "falt": 5415,
      "range": 5416,
      "lebr": 5417,
      "icians": 5418,
      "umzu": 5419,
      "ured": 5420,
      "mention": 5421,
      "stars": 5422,
      "Konfli": 5423,
      "freedom": 5424,
      "biology": 5425,
      "successful": 5426,
      "gradu": 5427,
      "Hände": 5428,
      "content": 5429,
      "earth": 5430,
      "bodies": 5431,
      "izations": 5432,
      "Frieden": 5433,
      "ört": 5434,
      "rief": 5435,
      "Americans": 5436,
      "traditional": 5437,
      "abhängig": 5438,
      "phenomen": 5439,
      "seconds": 5440,
      "Bus": 5441,
      "crow": 5442,
      "keiner": 5443,
      "ison": 5444,
      "pected": 5445,
      "mitt": 5446,
      "strument": 5447,
      "sammeln": 5448,
      "rights": 5449,
      "geschehen": 5450,
      "architecture": 5451,
      "Kollegen": 5452,
      "expensive": 5453,
      "fel": 5454,
      "jud": 5455,
      "station": 5456,
      "essed": 5457,
      "gefragt": 5458,
      "schung": 5459,
      "iced": 5460,
      "wirken": 5461,
      "melt": 5462,
      "ätze": 5463,
      "Second": 5464,
      "folgt": 5465,
      "keln": 5466,
      "Büro": 5467,
      "excited": 5468,
      "einzelnen": 5469,
      "heutzutage": 5470,
      "trotzdem": 5471,
      "stieg": 5472,
      "rise": 5473,
      "astrop": 5474,
      "Indian": 5475,
      "studies": 5476,
      "critical": 5477,
      "Kil": 5478,
      "lungen": 5479,
      "inden": 5480,
      "unmöglich": 5481,
      "affect": 5482,
      "zeigte": 5483,
      "price": 5484,
      "somehow": 5485,
      "Verantwort": 5486,
      "virus": 5487,
      "licherweise": 5488,
      "electricity": 5489,
      "verbinden": 5490,
      "Mathematik": 5491,
      "Et": 5492,
      "Nä": 5493,
      "Wol": 5494,
      "jungen": 5495,
      "zig": 5496,
      "stoffe": 5497,
      "rock": 5498,
      "maß": 5499,
      "Heim": 5500,
      "solchen": 5501,
      "Entdeck": 5502,
      "organization": 5503,
      "capt": 5504,
      "älter": 5505,
      "Ergebnisse": 5506,
      "perspective": 5507,
      "La": 5508,
      "Sim": 5509,
      "cial": 5510,
      "suffer": 5511,
      "erfahren": 5512,
      "alive": 5513,
      "aufgrund": 5514,
      "upon": 5515,
      "Arzt": 5516,
      "minister": 5517,
      "Herr": 5518,
      "Monat": 5519,
      "öffnen": 5520,
      "Regierungen": 5521,
      "families": 5522,
      "Architektur": 5523,
      "Sm": 5524,
      "rig": 5525,
      "uments": 5526,
      "iffe": 5527,
      "Gefäng": 5528,
      "vented": 5529,
      "niedr": 5530,
      "college": 5531,
      "analy": 5532,
      "relev": 5533,
      "Kampf": 5534,
      "3D": 5535,
      "mom": 5536,
      "ichter": 5537,
      "nenne": 5538,
      "proto": 5539,
      "Sche": 5540,
      "idet": 5541,
      "Neuro": 5542,
      "Außer": 5543,
      "glaub": 5544,
      "Phil": 5545,
      "yeah": 5546,
      "Maschinen": 5547,
      "Which": 5548,
      "Methode": 5549,
      "cup": 5550,
      "kar": 5551,
      "vard": 5552,
      "esh": 5553,
      "arian": 5554,
      "edia": 5555,
      "ending": 5556,
      "financ": 5557,
      "policy": 5558,
      "effekt": 5559,
      "spielt": 5560,
      "Wahrschein": 5561,
      "hilft": 5562,
      "Ressourcen": 5563,
      "pac": 5564,
      "income": 5565,
      "leisten": 5566,
      "extr": 5567,
      "commit": 5568,
      "atest": 5569,
      "Erwachsen": 5570,
      "ahmen": 5571,
      "fügen": 5572,
      "plex": 5573,
      "please": 5574,
      "check": 5575,
      "untersuchen": 5576,
      "dreht": 5577,
      "Lö": 5578,
      "ech": 5579,
      "lad": 5580,
      "rund": 5581,
      "shap": 5582,
      "lehr": 5583,
      "entdecken": 5584,
      "neun": 5585,
      "afford": 5586,
      "actual": 5587,
      "counter": 5588,
      "respect": 5589,
      "gotten": 5590,
      "physics": 5591,
      "iologie": 5592,
      "programm": 5593,
      "provide": 5594,
      "Krankenhaus": 5595,
      "Em": 5596,
      "Kan": 5597,
      "Times": 5598,
      "base": 5599,
      "tum": 5600,
      "ingungen": 5601,
      "heben": 5602,
      "lide": 5603,
      "School": 5604,
      "Wirtschafts": 5605,
      "covery": 5606,
      "hole": 5607,
      "hase": 5608,
      "experim": 5609,
      "himself": 5610,
      "increasing": 5611,
      "familiar": 5612,
      "graphic": 5613,
      "patterns": 5614,
      "Wachstum": 5615,
      "famous": 5616,
      "Ka": 5617,
      "Las": 5618,
      "Sal": 5619,
      "ns": 5620,
      "runter": 5621,
      "tle": 5622,
      "ya": 5623,
      "kelet": 5624,
      "ierter": 5625,
      "George": 5626,
      "glass": 5627,
      "Jahres": 5628,
      "anymore": 5629,
      "schlechte": 5630,
      "großartig": 5631,
      "straight": 5632,
      "Glauben": 5633,
      "Dre": 5634,
      "RI": 5635,
      "Sa": 5636,
      "hoff": 5637,
      "uern": 5638,
      "err": 5639,
      "atory": 5640,
      "reign": 5641,
      "trifft": 5642,
      "warten": 5643,
      "Imag": 5644,
      "Partner": 5645,
      "amerikanischen": 5646,
      "Freiheit": 5647,
      "Profess": 5648,
      "600": 5649,
      "Ano": 5650,
      "Sinne": 5651,
      "Angel": 5652,
      "smaller": 5653,
      "fascin": 5654,
      "dun": 5655,
      "hid": 5656,
      "leiden": 5657,
      "offer": 5658,
      "verm": 5659,
      "Sold": 5660,
      "werke": 5661,
      "conc": 5662,
      "platz": 5663,
      "saving": 5664,
      "tember": 5665,
      "riesige": 5666,
      "großartige": 5667,
      "Linie": 5668,
      "deliver": 5669,
      "Bud": 5670,
      "Pa": 5671,
      "Sil": 5672,
      "Tas": 5673,
      "fill": 5674,
      "kap": 5675,
      "zy": 5676,
      "stag": 5677,
      "seits": 5678,
      "zufäll": 5679,
      "math": 5680,
      "logy": 5681,
      "Artikel": 5682,
      "decisions": 5683,
      "Systeme": 5684,
      "Landes": 5685,
      "magic": 5686,
      "globalen": 5687,
      "passt": 5688,
      "Museum": 5689,
      "MIT": 5690,
      "Ton": 5691,
      "abe": 5692,
      "fung": 5693,
      "faces": 5694,
      "hängt": 5695,
      "Ingenie": 5696,
      "pendent": 5697,
      "mögl": 5698,
      "Einer": 5699,
      "cles": 5700,
      "iversity": 5701,
      "visible": 5702,
      "brother": 5703,
      "Nord": 5704,
      "catch": 5705,
      "rasch": 5706,
      "inse": 5707,
      "schicken": 5708,
      "Intell": 5709,
      "strange": 5710,
      "anywhere": 5711,
      "Einzel": 5712,
      "ignor": 5713,
      "scr": 5714,
      "kauf": 5715,
      "stab": 5716,
      "weite": 5717,
      "entschieden": 5718,
      "sowohl": 5719,
      "iffen": 5720,
      "endlich": 5721,
      "operation": 5722,
      "itude": 5723,
      "ieties": 5724,
      "Fotos": 5725,
      "engineering": 5726,
      "statist": 5727,
      "möglicht": 5728,
      "Ach": 5729,
      "cast": 5730,
      "danke": 5731,
      "pal": 5732,
      "ux": 5733,
      "zi": 5734,
      "erleben": 5735,
      "atives": 5736,
      "orien": 5737,
      "thern": 5738,
      "plat": 5739,
      "letter": 5740,
      "Formen": 5741,
      "folge": 5742,
      "erzählte": 5743,
      "treatment": 5744,
      "recognize": 5745,
      "robots": 5746,
      "Wunder": 5747,
      "swe": 5748,
      "uk": 5749,
      "ügen": 5750,
      "ality": 5751,
      "doctors": 5752,
      "machines": 5753,
      "Geburt": 5754,
      "graphy": 5755,
      "respond": 5756,
      "Beziehungen": 5757,
      "intelligence": 5758,
      "Finger": 5759,
      "ufen": 5760,
      "ermöglicht": 5761,
      "diejenigen": 5762,
      "hair": 5763,
      "lock": 5764,
      "ids": 5765,
      "performance": 5766,
      "plac": 5767,
      "ussion": 5768,
      "square": 5769,
      "neurons": 5770,
      "hi": 5771,
      "mod": 5772,
      "address": 5773,
      "ierende": 5774,
      "Regel": 5775,
      "greater": 5776,
      "olly": 5777,
      "embr": 5778,
      "aware": 5779,
      "sprün": 5780,
      "herausfinden": 5781,
      "Wohn": 5782,
      "condition": 5783,
      "mitteln": 5784,
      "dadurch": 5785,
      "earlier": 5786,
      "Another": 5787,
      "Vier": 5788,
      "nann": 5789,
      "onom": 5790,
      "auty": 5791,
      "herstellen": 5792,
      "darf": 5793,
      "Sep": 5794,
      "Auswirkungen": 5795,
      "einzig": 5796,
      "Flugzeug": 5797,
      "military": 5798,
      "Kamera": 5799,
      "Mob": 5800,
      "Pres": 5801,
      "Wik": 5802,
      "hop": 5803,
      "zon": 5804,
      "becoming": 5805,
      "veh": 5806,
      "driving": 5807,
      "zieht": 5808,
      "hyth": 5809,
      "König": 5810,
      "schöne": 5811,
      "Damit": 5812,
      "fass": 5813,
      "ilet": 5814,
      "zweiten": 5815,
      "intelle": 5816,
      "ets": 5817,
      "ios": 5818,
      "surger": 5819,
      "Gespr": 5820,
      "normalerweise": 5821,
      "genetic": 5822,
      "Ordnung": 5823,
      "iot": 5824,
      "taten": 5825,
      "wün": 5826,
      "atmosp": 5827,
      "entdeckt": 5828,
      "worry": 5829,
      "Industrie": 5830,
      "capac": 5831,
      "Liebl": 5832,
      "emotion": 5833,
      "Ident": 5834,
      "wis": 5835,
      "üb": 5836,
      "anter": 5837,
      "bestehen": 5838,
      "ilities": 5839,
      "berüh": 5840,
      "demand": 5841,
      "drink": 5842,
      "stress": 5843,
      "Frank": 5844,
      "phones": 5845,
      "resist": 5846,
      "einfachen": 5847,
      "teilung": 5848,
      "choices": 5849,
      "skills": 5850,
      "Telefon": 5851,
      "Einkommen": 5852,
      "Ehe": 5853,
      "iqu": 5854,
      "km": 5855,
      "forth": 5856,
      "akistan": 5857,
      "greatest": 5858,
      "spez": 5859,
      "nerv": 5860,
      "fühlt": 5861,
      "legs": 5862,
      "grundlegen": 5863,
      "Harvard": 5864,
      "argument": 5865,
      "schützen": 5866,
      "Beginn": 5867,
      "random": 5868,
      "September": 5869,
      "Ah": 5870,
      "Life": 5871,
      "Qual": 5872,
      "Zivil": 5873,
      "sü": 5874,
      "abstr": 5875,
      "strug": 5876,
      "durchschnitt": 5877,
      "waiting": 5878,
      "relative": 5879,
      "direction": 5880,
      "außerhalb": 5881,
      "painting": 5882,
      "listening": 5883,
      "unterstützen": 5884,
      "Bühne": 5885,
      "Imagine": 5886,
      "Bel": 5887,
      "Cor": 5888,
      "Fakt": 5889,
      "Rand": 5890,
      "Your": 5891,
      "hone": 5892,
      "masch": 5893,
      "slight": 5894,
      "üben": 5895,
      "thro": 5896,
      "atter": 5897,
      "rect": 5898,
      "desto": 5899,
      "therap": 5900,
      "solutions": 5901,
      "schlä": 5902,
      "Geräu": 5903,
      "clearly": 5904,
      "Höhe": 5905,
      "cket": 5906,
      "Öko": 5907,
      "befindet": 5908,
      "geschaffen": 5909,
      "Traum": 5910,
      "motor": 5911,
      "gesell": 5912,
      "laden": 5913,
      "connection": 5914,
      "übrigens": 5915,
      "Bra": 5916,
      "Haben": 5917,
      "Ler": 5918,
      "dor": 5919,
      "sus": 5920,
      "tu": 5921,
      "inc": 5922,
      "beauty": 5923,
      "icon": 5924,
      "herunter": 5925,
      "Zeitpunkt": 5926,
      "gebil": 5927,
      "arbeiter": 5928,
      "Brust": 5929,
      "related": 5930,
      "Individ": 5931,
      "fühlte": 5932,
      "drehen": 5933,
      "Darwin": 5934,
      "practice": 5935,
      "Ärzte": 5936,
      "Berg": 5937,
      "Jungen": 5938,
      "Name": 5939,
      "Noch": 5940,
      "tes": 5941,
      "stä": 5942,
      "hell": 5943,
      "afe": 5944,
      "Bezug": 5945,
      "Proto": 5946,
      "schafft": 5947,
      "throughout": 5948,
      "amente": 5949,
      "costs": 5950,
      "dangerous": 5951,
      "Ame": 5952,
      "Bienen": 5953,
      "Drogen": 5954,
      "MS": 5955,
      "rational": 5956,
      "sal": 5957,
      "ano": 5958,
      "stic": 5959,
      "asen": 5960,
      "ittel": 5961,
      "teen": 5962,
      "cold": 5963,
      "Unser": 5964,
      "Grad": 5965,
      "bisher": 5966,
      "welcher": 5967,
      "Gehirns": 5968,
      "expand": 5969,
      "walked": 5970,
      "Aspe": 5971,
      "Bis": 5972,
      "Californ": 5973,
      "blog": 5974,
      "nungen": 5975,
      "ächen": 5976,
      "lly": 5977,
      "accept": 5978,
      "aufre": 5979,
      "sport": 5980,
      "cook": 5981,
      "ächst": 5982,
      "betrachtet": 5983,
      "levels": 5984,
      "lernte": 5985,
      "schätzen": 5986,
      "Nerven": 5987,
      "Hor": 5988,
      "Liste": 5989,
      "Tor": 5990,
      "ende": 5991,
      "aria": 5992,
      "website": 5993,
      "ays": 5994,
      "liber": 5995,
      "maßen": 5996,
      "Stunde": 5997,
      "Einstein": 5998,
      "Neu": 5999,
      "decade": 6000,
      "fuel": 6001,
      "spreche": 6002,
      "floor": 6003,
      "Western": 6004,
      "lebte": 6005,
      "Gründe": 6006,
      "fantastic": 6007,
      "hart": 6008,
      "iling": 6009,
      "uchten": 6010,
      "compl": 6011,
      "Schle": 6012,
      "therefore": 6013,
      "foss": 6014,
      "weitens": 6015,
      "Manchmal": 6016,
      "Fluss": 6017,
      "fuhr": 6018,
      "Quad": 6019,
      "cure": 6020,
      "Verfüg": 6021,
      "Vertrauen": 6022,
      "understood": 6023,
      "blau": 6024,
      "Vorstell": 6025,
      "park": 6026,
      "flex": 6027,
      "services": 6028,
      "ebenso": 6029,
      "Netzwerk": 6030,
      "consciousness": 6031,
      "Francisco": 6032,
      "Band": 6033,
      "Farbe": 6034,
      "Hom": 6035,
      "unächst": 6036,
      "leider": 6037,
      "trade": 6038,
      "celebr": 6039,
      "final": 6040,
      "schiede": 6041,
      "Manche": 6042,
      "landsc": 6043,
      "ameras": 6044,
      "journal": 6045,
      "Mir": 6046,
      "Two": 6047,
      "iat": 6048,
      "erf": 6049,
      "frame": 6050,
      "frieden": 6051,
      "Think": 6052,
      "Schwar": 6053,
      "änomen": 6054,
      "estim": 6055,
      "jemandem": 6056,
      "popular": 6057,
      "Organisation": 6058,
      "Bu": 6059,
      "ding": 6060,
      "altet": 6061,
      "entweder": 6062,
      "perfe": 6063,
      "dritte": 6064,
      "guter": 6065,
      "Trans": 6066,
      "einzigen": 6067,
      "Kreis": 6068,
      "environmental": 6069,
      "Gold": 6070,
      "Junge": 6071,
      "Mart": 6072,
      "ahead": 6073,
      "intens": 6074,
      "invented": 6075,
      "isol": 6076,
      "weap": 6077,
      "schte": 6078,
      "anning": 6079,
      "erns": 6080,
      "Geschäft": 6081,
      "career": 6082,
      "Muslim": 6083,
      "Erfahrungen": 6084,
      "sequence": 6085,
      "getroffen": 6086,
      "secret": 6087,
      "Dan": 6088,
      "PS": 6089,
      "Sha": 6090,
      "iate": 6091,
      "enjoy": 6092,
      "unsch": 6093,
      "react": 6094,
      "ulations": 6095,
      "antic": 6096,
      "mehrere": 6097,
      "prevent": 6098,
      "Interesse": 6099,
      "decades": 6100,
      "values": 6101,
      "negative": 6102,
      "conflict": 6103,
      "Ball": 6104,
      "ju": 6105,
      "mas": 6106,
      "afft": 6107,
      "spür": 6108,
      "vorbei": 6109,
      "vollen": 6110,
      "meeting": 6111,
      "wärts": 6112,
      "Veränderungen": 6113,
      "California": 6114,
      "65": 6115,
      "Colle": 6116,
      "bü": 6117,
      "bahn": 6118,
      "män": 6119,
      "steckt": 6120,
      "Inse": 6121,
      "humanity": 6122,
      "teaching": 6123,
      "central": 6124,
      "Punkte": 6125,
      "Tisch": 6126,
      "hib": 6127,
      "nöt": 6128,
      "ober": 6129,
      "race": 6130,
      "encour": 6131,
      "stück": 6132,
      "account": 6133,
      "handeln": 6134,
      "197": 6135,
      "gutes": 6136,
      "minist": 6137,
      "collect": 6138,
      "governments": 6139,
      "besondere": 6140,
      "Lösungen": 6141,
      "Institution": 6142,
      "erwarten": 6143,
      "heutigen": 6144,
      "Anderson": 6145,
      "institutions": 6146,
      "Intelligen": 6147,
      "Bon": 6148,
      "Bang": 6149,
      "Ereign": 6150,
      "hous": 6151,
      "mid": 6152,
      "vic": 6153,
      "thod": 6154,
      "abl": 6155,
      "partner": 6156,
      "offic": 6157,
      "wenige": 6158,
      "Komplex": 6159,
      "dollar": 6160,
      "arriere": 6161,
      "tausend": 6162,
      "Schrift": 6163,
      "various": 6164,
      "intelligent": 6165,
      "Behandlung": 6166,
      "Fü": 6167,
      "Mill": 6168,
      "Pakistan": 6169,
      "ael": 6170,
      "fiel": 6171,
      "sweise": 6172,
      "wealth": 6173,
      "scher": 6174,
      "ürf": 6175,
      "apply": 6176,
      "paid": 6177,
      "radio": 6178,
      "electron": 6179,
      "erinnere": 6180,
      "challenges": 6181,
      "immediately": 6182,
      "Pass": 6183,
      "recor": 6184,
      "stecken": 6185,
      "alley": 6186,
      "neighborhood": 6187,
      "Jahrhunderts": 6188,
      "Big": 6189,
      "Paul": 6190,
      "pfl": 6191,
      "ery": 6192,
      "inten": 6193,
      "seh": 6194,
      "behaup": 6195,
      "dasselbe": 6196,
      "Insel": 6197,
      "plastic": 6198,
      "selten": 6199,
      "Verständnis": 6200,
      "kenne": 6201,
      "bud": 6202,
      "Worten": 6203,
      "Englisch": 6204,
      "effects": 6205,
      "Klimaw": 6206,
      "industrial": 6207,
      "remarkable": 6208,
      "Alex": 6209,
      "Mitt": 6210,
      "ancy": 6211,
      "deter": 6212,
      "früh": 6213,
      "ustom": 6214,
      "cry": 6215,
      "Chic": 6216,
      "Polize": 6217,
      "außergewöhn": 6218,
      "Great": 6219,
      "antworten": 6220,
      "ehrlich": 6221,
      "Lernen": 6222,
      "Ama": 6223,
      "Wow": 6224,
      "ius": 6225,
      "kit": 6226,
      "none": 6227,
      "öl": 6228,
      "erei": 6229,
      "ulieren": 6230,
      "concl": 6231,
      "female": 6232,
      "herzustellen": 6233,
      "Prot": 6234,
      "although": 6235,
      "Designer": 6236,
      "verrückt": 6237,
      "Detail": 6238,
      "Jedes": 6239,
      "Mär": 6240,
      "gift": 6241,
      "körper": 6242,
      "Än": 6243,
      "ersch": 6244,
      "bezahl": 6245,
      "verhalten": 6246,
      "verständ": 6247,
      "entlichen": 6248,
      "mitten": 6249,
      "annt": 6250,
      "Zeiten": 6251,
      "ishing": 6252,
      "instance": 6253,
      "aurant": 6254,
      "daughter": 6255,
      "explor": 6256,
      "unterschiedliche": 6257,
      "terrible": 6258,
      "Medikamente": 6259,
      "Toch": 6260,
      "Wesen": 6261,
      "ißen": 6262,
      "mam": 6263,
      "push": 6264,
      "xim": 6265,
      "Öff": 6266,
      "inform": 6267,
      "invent": 6268,
      "infrastru": 6269,
      "aries": 6270,
      "amb": 6271,
      "Schn": 6272,
      "Neur": 6273,
      "transl": 6274,
      "pressure": 6275,
      "Good": 6276,
      "jene": 6277,
      "ativität": 6278,
      "verkaufen": 6279,
      "flying": 6280,
      "style": 6281,
      "Fen": 6282,
      "Mater": 6283,
      "Zw": 6284,
      "yn": 6285,
      "veränder": 6286,
      "sowie": 6287,
      "spot": 6288,
      "Wege": 6289,
      "finanz": 6290,
      "decide": 6291,
      "societies": 6292,
      "helped": 6293,
      "possibly": 6294,
      "Feld": 6295,
      "anced": 6296,
      "Sommer": 6297,
      "Sport": 6298,
      "dings": 6299,
      "reibt": 6300,
      "remain": 6301,
      "worst": 6302,
      "stands": 6303,
      "Freunden": 6304,
      "lights": 6305,
      "NASA": 6306,
      "ebenfalls": 6307,
      "following": 6308,
      "Zustand": 6309,
      "Position": 6310,
      "Gefängnis": 6311,
      "Tochter": 6312,
      "Gang": 6313,
      "James": 6314,
      "Kir": 6315,
      "Mach": 6316,
      "Pho": 6317,
      "nutz": 6318,
      "stim": 6319,
      "held": 6320,
      "barkeit": 6321,
      "basis": 6322,
      "played": 6323,
      "summer": 6324,
      "capacity": 6325,
      "23": 6326,
      "Zelle": 6327,
      "slide": 6328,
      "üp": 6329,
      "states": 6330,
      "algorith": 6331,
      "assoc": 6332,
      "itat": 6333,
      "ires": 6334,
      "ilien": 6335,
      "mobil": 6336,
      "useful": 6337,
      "Steve": 6338,
      "unglaubliche": 6339,
      "dramat": 6340,
      "schirm": 6341,
      "Schönheit": 6342,
      "Jour": 6343,
      "Wal": 6344,
      "bing": 6345,
      "fat": 6346,
      "tan": 6347,
      "itung": 6348,
      "verbringen": 6349,
      "From": 6350,
      "geschah": 6351,
      "raise": 6352,
      "surve": 6353,
      "Teilen": 6354,
      "babies": 6355,
      "politics": 6356,
      "holt": 6357,
      "Charles": 6358,
      "original": 6359,
      "staat": 6360,
      "enormous": 6361,
      "erfunden": 6362,
      "BI": 6363,
      "CE": 6364,
      "Jan": 6365,
      "dein": 6366,
      "pon": 6367,
      "chts": 6368,
      "trouble": 6369,
      "worten": 6370,
      "artist": 6371,
      "bound": 6372,
      "nachhalt": 6373,
      "creativity": 6374,
      "match": 6375,
      "rooms": 6376,
      "chemical": 6377,
      "Filme": 6378,
      "unique": 6379,
      "Statist": 6380,
      "Many": 6381,
      "Pan": 6382,
      "Tube": 6383,
      "hall": 6384,
      "kin": 6385,
      "lust": 6386,
      "expected": 6387,
      "Projekte": 6388,
      "Werte": 6389,
      "cultural": 6390,
      "speaking": 6391,
      "laws": 6392,
      "purpose": 6393,
      "Verantwortung": 6394,
      "Mic": 6395,
      "sichtig": 6396,
      "seas": 6397,
      "entrepr": 6398,
      "myster": 6399,
      "aining": 6400,
      "Erkennt": 6401,
      "Anwend": 6402,
      "ufact": 6403,
      "paign": 6404,
      "geschafft": 6405,
      "Schlaf": 6406,
      "programs": 6407,
      "citizens": 6408,
      "Chicago": 6409,
      "entreprene": 6410,
      "Kol": 6411,
      "Last": 6412,
      "hon": 6413,
      "ari": 6414,
      "tery": 6415,
      "berg": 6416,
      "manip": 6417,
      "condu": 6418,
      "tax": 6419,
      "nehme": 6420,
      "brauchte": 6421,
      "krit": 6422,
      "größere": 6423,
      "frequ": 6424,
      "Süd": 6425,
      "Finanz": 6426,
      "behandeln": 6427,
      "Eigenschaften": 6428,
      "blow": 6429,
      "dür": 6430,
      "verse": 6431,
      "forget": 6432,
      "trick": 6433,
      "Erstens": 6434,
      "anyway": 6435,
      "öffnet": 6436,
      "digit": 6437,
      "sätzlich": 6438,
      "Austral": 6439,
      "directly": 6440,
      "Männern": 6441,
      "Journal": 6442,
      "Biologie": 6443,
      "Hund": 6444,
      "stadt": 6445,
      "teuer": 6446,
      "verantwort": 6447,
      "forces": 6448,
      "ulated": 6449,
      "wers": 6450,
      "überleben": 6451,
      "whose": 6452,
      "2008": 6453,
      "shared": 6454,
      "haltung": 6455,
      "diseases": 6456,
      "relationships": 6457,
      "afraid": 6458,
      "markets": 6459,
      "efficient": 6460,
      "colleagues": 6461,
      "\"-": 6462,
      "echte": 6463,
      "sn": 6464,
      "öse": 6465,
      "rechte": 6466,
      "umm": 6467,
      "commer": 6468,
      "Gewe": 6469,
      "Erzä": 6470,
      "ipt": 6471,
      "ziell": 6472,
      "surround": 6473,
      "pressed": 6474,
      "rufen": 6475,
      "Schlüssel": 6476,
      "metap": 6477,
      "Städten": 6478,
      "Meeres": 6479,
      "Hirn": 6480,
      "22": 6481,
      "Ahnung": 6482,
      "Bre": 6483,
      "Ep": 6484,
      "Wichtig": 6485,
      "Wald": 6486,
      "adem": 6487,
      "uder": 6488,
      "roy": 6489,
      "gender": 6490,
      "metr": 6491,
      "wiesen": 6492,
      "Infrastru": 6493,
      "aps": 6494,
      "cred": 6495,
      "claim": 6496,
      "Auge": 6497,
      "Freude": 6498,
      "eigenes": 6499,
      "kostet": 6500,
      "published": 6501,
      "existiert": 6502,
      "Bedürf": 6503,
      "survive": 6504,
      "Nigeria": 6505,
      "slightly": 6506,
      "Verfügung": 6507,
      "Dienst": 6508,
      "Pop": 6509,
      "Port": 6510,
      "aven": 6511,
      "eating": 6512,
      "kulture": 6513,
      "bees": 6514,
      "genutzt": 6515,
      "ierungs": 6516,
      "umen": 6517,
      "Version": 6518,
      "Arme": 6519,
      "mostly": 6520,
      "2010": 6521,
      "supply": 6522,
      "sorg": 6523,
      "Kapital": 6524,
      "Nähe": 6525,
      "Angeles": 6526,
      "surgery": 6527,
      "Center": 6528,
      "[\"": 6529,
      "üst": 6530,
      "chines": 6531,
      "ara": 6532,
      "ennung": 6533,
      "express": 6534,
      "boys": 6535,
      "foto": 6536,
      "YouTube": 6537,
      "Unterstüt": 6538,
      "stopped": 6539,
      "Professor": 6540,
      "Aud": 6541,
      "End": 6542,
      "Massen": 6543,
      "dank": 6544,
      "iPh": 6545,
      "stände": 6546,
      "below": 6547,
      "deb": 6548,
      "verme": 6549,
      "schutz": 6550,
      "frustr": 6551,
      "annien": 6552,
      "compe": 6553,
      "Ansatz": 6554,
      "klin": 6555,
      "gering": 6556,
      "angefangen": 6557,
      "markt": 6558,
      "Strateg": 6559,
      "trieben": 6560,
      "Street": 6561,
      "gypt": 6562,
      "dimensional": 6563,
      "konzentrieren": 6564,
      "comfortable": 6565,
      "financial": 6566,
      "Emp": 6567,
      "Zuf": 6568,
      "wuchs": 6569,
      "ala": 6570,
      "agric": 6571,
      "schlimm": 6572,
      "Kreativität": 6573,
      "institution": 6574,
      "schönen": 6575,
      "Michael": 6576,
      "Abend": 6577,
      "temperature": 6578,
      "Global": 6579,
      "repres": 6580,
      "gewä": 6581,
      "icke": 6582,
      "Westen": 6583,
      "boat": 6584,
      "aded": 6585,
      "turning": 6586,
      "funny": 6587,
      "produced": 6588,
      "biological": 6589,
      "Produkte": 6590,
      "sustainable": 6591,
      "aper": 6592,
      "fängt": 6593,
      "gi": 6594,
      "chron": 6595,
      "ingu": 6596,
      "geo": 6597,
      "irur": 6598,
      "heat": 6599,
      "note": 6600,
      "Star": 6601,
      "ierenden": 6602,
      "tail": 6603,
      "party": 6604,
      "tremend": 6605,
      "glaubt": 6606,
      "Überleben": 6607,
      "rule": 6608,
      "Antworten": 6609,
      "wunderbar": 6610,
      "religion": 6611,
      "erwartet": 6612,
      "industrie": 6613,
      "profession": 6614,
      "television": 6615,
      "thetic": 6616,
      "tempor": 6617,
      "Infrastruktur": 6618,
      "Ira": 6619,
      "gin": 6620,
      "task": 6621,
      "vul": 6622,
      "enk": 6623,
      "Gelegenheit": 6624,
      "Nehmen": 6625,
      "corpor": 6626,
      "Marke": 6627,
      "profound": 6628,
      "scientist": 6629,
      "frühen": 6630,
      "Verbindungen": 6631,
      "Materialien": 6632,
      "Risiko": 6633,
      "Leidenschaft": 6634,
      "His": 6635,
      "Tieren": 6636,
      "Wes": 6637,
      "custom": 6638,
      "pite": 6639,
      "sick": 6640,
      "ench": 6641,
      "initi": 6642,
      "tome": 6643,
      "meters": 6644,
      "pelt": 6645,
      "manufact": 6646,
      "spaces": 6647,
      "acts": 6648,
      "ivity": 6649,
      "seines": 6650,
      "geschlossen": 6651,
      "Online": 6652,
      "Gemeinde": 6653,
      "beeinflusst": 6654,
      "Religion": 6655,
      "King": 6656,
      "Wider": 6657,
      "Wett": 6658,
      "double": 6659,
      "iated": 6660,
      "sad": 6661,
      "tons": 6662,
      "vit": 6663,
      "sobald": 6664,
      "aufgenommen": 6665,
      "lying": 6666,
      "interview": 6667,
      "laugh": 6668,
      "wichtigsten": 6669,
      "stock": 6670,
      "bedingt": 6671,
      "zweif": 6672,
      "plications": 6673,
      "streets": 6674,
      "Physik": 6675,
      "cu": 6676,
      "verfüg": 6677,
      "ursprün": 6678,
      "noticed": 6679,
      "Schutz": 6680,
      "Erst": 6681,
      "differences": 6682,
      "azine": 6683,
      "Spitze": 6684,
      "Green": 6685,
      "explore": 6686,
      "Medikament": 6687,
      "kontrollieren": 6688,
      "Gar": 6689,
      "Hunder": 6690,
      "künft": 6691,
      "san": 6692,
      "vast": 6693,
      "erzeugt": 6694,
      "thal": 6695,
      "isser": 6696,
      "iles": 6697,
      "spar": 6698,
      "brachten": 6699,
      "plus": 6700,
      "notwend": 6701,
      "istenz": 6702,
      "Plast": 6703,
      "Atlant": 6704,
      "answers": 6705,
      "communicate": 6706,
      "effiz": 6707,
      "Suche": 6708,
      "mountain": 6709,
      "Adam": 6710,
      "Dort": 6711,
      "bag": 6712,
      "dance": 6713,
      "hus": 6714,
      "hängen": 6715,
      "ält": 6716,
      "ermöglichen": 6717,
      "neten": 6718,
      "meist": 6719,
      "anti": 6720,
      "prise": 6721,
      "füllen": 6722,
      "izes": 6723,
      "akzept": 6724,
      "Thanks": 6725,
      "freien": 6726,
      "Klasse": 6727,
      "Region": 6728,
      "politischen": 6729,
      "Schluss": 6730,
      "collective": 6731,
      "Atmosp": 6732,
      "Virus": 6733,
      "nationale": 6734,
      "Knochen": 6735,
      "ollywood": 6736,
      "infrastructure": 6737,
      "Bäume": 6738,
      "Hung": 6739,
      "Karriere": 6740,
      "Lat": 6741,
      "Wur": 6742,
      "ba": 6743,
      "iete": 6744,
      "method": 6745,
      "Sozial": 6746,
      "Instead": 6747,
      "plom": 6748,
      "ikas": 6749,
      "setzung": 6750,
      "organizations": 6751,
      "Herzen": 6752,
      "Boston": 6753,
      "riesigen": 6754,
      "lebten": 6755,
      "experiences": 6756,
      "Temper": 6757,
      "causes": 6758,
      "britannien": 6759,
      "Müll": 6760,
      "oxygen": 6761,
      "relevant": 6762,
      "honest": 6763,
      "Intelligenz": 6764,
      "Bur": 6765,
      "Mess": 6766,
      "Rücken": 6767,
      "Waffen": 6768,
      "bought": 6769,
      "cked": 6770,
      "dage": 6771,
      "rän": 6772,
      "heir": 6773,
      "utter": 6774,
      "ety": 6775,
      "brilli": 6776,
      "Vergleich": 6777,
      "stron": 6778,
      "ippe": 6779,
      "Interess": 6780,
      "Vielfalt": 6781,
      "closer": 6782,
      "Todes": 6783,
      "easily": 6784,
      "evolved": 6785,
      "pounds": 6786,
      "häufig": 6787,
      "globale": 6788,
      "Amazon": 6789,
      "Again": 6790,
      "Spiele": 6791,
      "Ther": 6792,
      "ellen": 6793,
      "gol": 6794,
      "ham": 6795,
      "hause": 6796,
      "einst": 6797,
      "zusagen": 6798,
      "spiele": 6799,
      "seemed": 6800,
      "begonnen": 6801,
      "Ausdruck": 6802,
      "engage": 6803,
      "cycle": 6804,
      "Nichts": 6805,
      "hielten": 6806,
      "Farben": 6807,
      "Text": 6808,
      "campaign": 6809,
      "Zentrum": 6810,
      "Kommunikation": 6811,
      "Rat": 6812,
      "lter": 6813,
      "rough": 6814,
      "ragen": 6815,
      "gehalten": 6816,
      "entstehen": 6817,
      "icles": 6818,
      "warm": 6819,
      "voraus": 6820,
      "pleas": 6821,
      "oting": 6822,
      "konom": 6823,
      "suit": 6824,
      "networks": 6825,
      "fälle": 6826,
      "Unterschiede": 6827,
      "politische": 6828,
      "erstaunlich": 6829,
      "Opfer": 6830,
      "Sauerstoff": 6831,
      "BG": 6832,
      "Over": 6833,
      "gilt": 6834,
      "inj": 6835,
      "sters": 6836,
      "reagieren": 6837,
      "seien": 6838,
      "aught": 6839,
      "tech": 6840,
      "ential": 6841,
      "bran": 6842,
      "präsent": 6843,
      "Stan": 6844,
      "workers": 6845,
      "wält": 6846,
      "Geschwindigkeit": 6847,
      "bringing": 6848,
      "identity": 6849,
      "twice": 6850,
      "atmosphere": 6851,
      "Cy": 6852,
      "zil": 6853,
      "itts": 6854,
      "remo": 6855,
      "istisch": 6856,
      "schwe": 6857,
      "usive": 6858,
      "mente": 6859,
      "speech": 6860,
      "Phänomen": 6861,
      "Glas": 6862,
      "broken": 6863,
      "birds": 6864,
      "advant": 6865,
      "Fenster": 6866,
      "Iraq": 6867,
      "Os": 6868,
      "Tum": 6869,
      "dee": 6870,
      "bruch": 6871,
      "gelöst": 6872,
      "ziellen": 6873,
      "produziert": 6874,
      "sites": 6875,
      "ancient": 6876,
      "highly": 6877,
      "Beruf": 6878,
      "vari": 6879,
      "Werkzeuge": 6880,
      "responsibility": 6881,
      "Niemand": 6882,
      "Entwicklungsl": 6883,
      "Wikip": 6884,
      "gesellschaft": 6885,
      "Szen": 6886,
      "Tun": 6887,
      "Wunsch": 6888,
      "ziel": 6889,
      "enze": 6890,
      "itär": 6891,
      "orient": 6892,
      "gek": 6893,
      "entdeck": 6894,
      "sogenann": 6895,
      "ume": 6896,
      "shift": 6897,
      "Frü": 6898,
      "Seit": 6899,
      "einfacher": 6900,
      "gestalten": 6901,
      "Schlag": 6902,
      "fash": 6903,
      "fasst": 6904,
      "Gesellschaften": 6905,
      "nearly": 6906,
      "27": 6907,
      "cel": 6908,
      "dying": 6909,
      "jün": 6910,
      "tit": 6911,
      "Gefühle": 6912,
      "iabet": 6913,
      "geschichte": 6914,
      "feels": 6915,
      "größeren": 6916,
      "assem": 6917,
      "missing": 6918,
      "passed": 6919,
      "Kilometer": 6920,
      "Middle": 6921,
      "pun": 6922,
      "rechten": 6923,
      "entlang": 6924,
      "kehren": 6925,
      "cep": 6926,
      "quote": 6927,
      "ained": 6928,
      "urcht": 6929,
      "creates": 6930,
      "flag": 6931,
      "196": 6932,
      "weiterhin": 6933,
      "losing": 6934,
      "piegel": 6935,
      "designer": 6936,
      "fragten": 6937,
      "Jobs": 6938,
      "copy": 6939,
      "significant": 6940,
      "Ac": 6941,
      "Air": 6942,
      "MA": 6943,
      "diversity": 6944,
      "artig": 6945,
      "Gewicht": 6946,
      "knowing": 6947,
      "üsse": 6948,
      "differently": 6949,
      "designers": 6950,
      "helping": 6951,
      "names": 6952,
      "Comput": 6953,
      "Großbritannien": 6954,
      "Karten": 6955,
      "communication": 6956,
      "Disk": 6957,
      "sharing": 6958,
      "afrikan": 6959,
      "imagination": 6960,
      "experiments": 6961,
      "Keine": 6962,
      "Kann": 6963,
      "Offen": 6964,
      "UN": 6965,
      "länd": 6966,
      "pus": 6967,
      "satell": 6968,
      "uel": 6969,
      "iche": 6970,
      "defen": 6971,
      "vertr": 6972,
      "acted": 6973,
      "host": 6974,
      "More": 6975,
      "2007": 6976,
      "zeichen": 6977,
      "Typen": 6978,
      "Radio": 6979,
      "rapid": 6980,
      "surprising": 6981,
      "Loch": 6982,
      "Take": 6983,
      "Ve": 6984,
      "eure": 6985,
      "pig": 6986,
      "rare": 6987,
      "sme": 6988,
      "spo": 6989,
      "ibiot": 6990,
      "Gest": 6991,
      "interpret": 6992,
      "akten": 6993,
      "Kontin": 6994,
      "brea": 6995,
      "bitten": 6996,
      "Deut": 6997,
      "corner": 6998,
      "Handy": 6999,
      "mutlich": 7000,
      "Spielen": 7001,
      "install": 7002,
      "posite": 7003,
      "Soldaten": 7004,
      "dorthin": 7005,
      "Eing": 7006,
      "Ganz": 7007,
      "Hig": 7008,
      "Lang": 7009,
      "Osten": 7010,
      "bird": 7011,
      "mouth": 7012,
      "erstellen": 7013,
      "aling": 7014,
      "genome": 7015,
      "sper": 7016,
      "master": 7017,
      "ibution": 7018,
      "systeme": 7019,
      "intu": 7020,
      "Geschle": 7021,
      "ganzes": 7022,
      "Perspekt": 7023,
      "imeter": 7024,
      "Denk": 7025,
      "Coun": 7026,
      "krieg": 7027,
      "behandelt": 7028,
      "Vogel": 7029,
      "Privat": 7030,
      "College": 7031,
      "Lab": 7032,
      "pä": 7033,
      "auber": 7034,
      "artige": 7035,
      "logical": 7036,
      "flight": 7037,
      "1990": 7038,
      "carto": 7039,
      "visit": 7040,
      "mutter": 7041,
      "Paris": 7042,
      "reduce": 7043,
      "complexity": 7044,
      "molecules": 7045,
      "Präsident": 7046,
      "mittler": 7047,
      "iPhone": 7048,
      "fashion": 7049,
      "Bitte": 7050,
      "Klassen": 7051,
      "erc": 7052,
      "heav": 7053,
      "achsen": 7054,
      "losen": 7055,
      "perfekt": 7056,
      "appl": 7057,
      "Heil": 7058,
      "bub": 7059,
      "prep": 7060,
      "führer": 7061,
      "Mond": 7062,
      "switch": 7063,
      "Zusammenhang": 7064,
      "erlauben": 7065,
      "täglich": 7066,
      "Science": 7067,
      "degrees": 7068,
      "Wikipedia": 7069,
      "DH": 7070,
      "Dem": 7071,
      "Null": 7072,
      "Tel": 7073,
      "künst": 7074,
      "äten": 7075,
      "inf": 7076,
      "orben": 7077,
      "leun": 7078,
      "verfolgen": 7079,
      "trage": 7080,
      "ifik": 7081,
      "klingt": 7082,
      "hohe": 7083,
      "Zeichen": 7084,
      "resol": 7085,
      "führung": 7086,
      "element": 7087,
      "effort": 7088,
      "regular": 7089,
      "physic": 7090,
      "Norden": 7091,
      "entwickelten": 7092,
      "verkauft": 7093,
      "spending": 7094,
      "wohner": 7095,
      "Fortschritt": 7096,
      "Botschaft": 7097,
      "Actually": 7098,
      "inspired": 7099,
      "Brazil": 7100,
      "Temperatur": 7101,
      "Jer": 7102,
      "email": 7103,
      "iop": 7104,
      "lack": 7105,
      "scan": 7106,
      "rede": 7107,
      "andid": 7108,
      "entsteht": 7109,
      "entschied": 7110,
      "usual": 7111,
      "iding": 7112,
      "hindern": 7113,
      "wächst": 7114,
      "Konferenz": 7115,
      "betrifft": 7116,
      "Kohlen": 7117,
      "planets": 7118,
      "focused": 7119,
      "Sekunde": 7120,
      "beeinflussen": 7121,
      "letztes": 7122,
      "Titel": 7123,
      "Effekt": 7124,
      "II": 7125,
      "NG": 7126,
      "Rau": 7127,
      "Ziele": 7128,
      "ibr": 7129,
      "agon": 7130,
      "conserv": 7131,
      "Thom": 7132,
      "wahl": 7133,
      "gewisse": 7134,
      "Gesetze": 7135,
      "äuß": 7136,
      "possibility": 7137,
      "definition": 7138,
      "Juli": 7139,
      "amerikanische": 7140,
      "Lieblings": 7141,
      "Ameisen": 7142,
      "landscape": 7143,
      "Unterstützung": 7144,
      "DP": 7145,
      "Kunden": 7146,
      "Lap": 7147,
      "Satz": 7148,
      "lös": 7149,
      "tox": 7150,
      "concer": 7151,
      "Beste": 7152,
      "blü": 7153,
      "Konsum": 7154,
      "balance": 7155,
      "Genom": 7156,
      "Boot": 7157,
      "vollkommen": 7158,
      "gefallen": 7159,
      "Code": 7160,
      "Staat": 7161,
      "Werkzeug": 7162,
      "alifornien": 7163,
      "Solar": 7164,
      "natürliche": 7165,
      "DA": 7166,
      "Did": 7167,
      "Holz": 7168,
      "Laden": 7169,
      "brow": 7170,
      "uz": 7171,
      "intr": 7172,
      "aters": 7173,
      "unte": 7174,
      "asp": 7175,
      "bee": 7176,
      "veröffent": 7177,
      "edge": 7178,
      "constr": 7179,
      "grav": 7180,
      "dritten": 7181,
      "anges": 7182,
      "Einsatz": 7183,
      "craft": 7184,
      "studying": 7185,
      "moments": 7186,
      "winz": 7187,
      "sexual": 7188,
      "offee": 7189,
      "erforschen": 7190,
      "dagegen": 7191,
      "Cam": 7192,
      "Fest": 7193,
      "Pot": 7194,
      "Tanz": 7195,
      "baut": 7196,
      "date": 7197,
      "ino": 7198,
      "itter": 7199,
      "reten": 7200,
      "wirkt": 7201,
      "umente": 7202,
      "ows": 7203,
      "ower": 7204,
      "conference": 7205,
      "Inner": 7206,
      "gewonnen": 7207,
      "gewachsen": 7208,
      "Unternehmer": 7209,
      "ohle": 7210,
      "beschreiben": 7211,
      "ception": 7212,
      "zog": 7213,
      "trieb": 7214,
      "opportunities": 7215,
      "Herausforderungen": 7216,
      "Funktion": 7217,
      "bemerkens": 7218,
      "lucky": 7219,
      "Neuronen": 7220,
      "Sind": 7221,
      "Zur": 7222,
      "dinosaur": 7223,
      "eg": 7224,
      "erhält": 7225,
      "istry": 7226,
      "trial": 7227,
      "iften": 7228,
      "ads": 7229,
      "saß": 7230,
      "flies": 7231,
      "background": 7232,
      "Ausbildung": 7233,
      "Mitglie": 7234,
      "Teilchen": 7235,
      "ütter": 7236,
      "Spieler": 7237,
      "investieren": 7238,
      "alternative": 7239,
      "devices": 7240,
      "begeist": 7241,
      "Bom": 7242,
      "GPS": 7243,
      "PA": 7244,
      "Pil": 7245,
      "bone": 7246,
      "ners": 7247,
      "vacc": 7248,
      "infe": 7249,
      "unbedingt": 7250,
      "beis": 7251,
      "vertrauen": 7252,
      "davor": 7253,
      "justice": 7254,
      "unternehmen": 7255,
      "mögliche": 7256,
      "forever": 7257,
      "Aufgaben": 7258,
      "weiteres": 7259,
      "Jede": 7260,
      "wheel": 7261,
      "hearing": 7262,
      "Bedingungen": 7263,
      "Korallen": 7264,
      "benötigen": 7265,
      "structures": 7266,
      "kommunizieren": 7267,
      "Wahrscheinlichkeit": 7268,
      "Materie": 7269,
      "tremendous": 7270,
      "vulner": 7271,
      "250": 7272,
      "Fach": 7273,
      "Nutz": 7274,
      "anno": 7275,
      "regel": 7276,
      "irgen": 7277,
      "weird": 7278,
      "alleine": 7279,
      "Stär": 7280,
      "ugier": 7281,
      "gelassen": 7282,
      "teles": 7283,
      "gewicht": 7284,
      "bloß": 7285,
      "members": 7286,
      "höch": 7287,
      "exponent": 7288,
      "yellow": 7289,
      "signal": 7290,
      "addition": 7291,
      "figured": 7292,
      "Sterne": 7293,
      "raised": 7294,
      "kompliz": 7295,
      "victim": 7296,
      "Komplexität": 7297,
      "Sun": 7298,
      "cies": 7299,
      "gig": 7300,
      "behalten": 7301,
      "umgehen": 7302,
      "steigt": 7303,
      "ktro": 7304,
      "Stein": 7305,
      "penden": 7306,
      "charge": 7307,
      "collap": 7308,
      "Result": 7309,
      "füllt": 7310,
      "veröffentlicht": 7311,
      "CD": 7312,
      "Eth": 7313,
      "coffee": 7314,
      "kno": 7315,
      "rt": 7316,
      "cha": 7317,
      "ises": 7318,
      "überzeugt": 7319,
      "gros": 7320,
      "serve": 7321,
      "basiert": 7322,
      "avoid": 7323,
      "correct": 7324,
      "Span": 7325,
      "Universums": 7326,
      "Zusammenarbeit": 7327,
      "religious": 7328,
      "failure": 7329,
      "necessary": 7330,
      "Identität": 7331,
      "husband": 7332,
      "Atmosphäre": 7333,
      "Blog": 7334,
      "Fische": 7335,
      "Fün": 7336,
      "Mat": 7337,
      "Wandel": 7338,
      "yl": 7339,
      "städ": 7340,
      "acked": 7341,
      "wid": 7342,
      "ceed": 7343,
      "astron": 7344,
      "liebt": 7345,
      "ungskraft": 7346,
      "eingesch": 7347,
      "disk": 7348,
      "Kontakt": 7349,
      "breast": 7350,
      "Tradition": 7351,
      "sitzt": 7352,
      "Syn": 7353,
      "motion": 7354,
      "möglichkeit": 7355,
      "particles": 7356,
      "wissenschaftliche": 7357,
      "fairly": 7358,
      "Klima": 7359,
      "ivalent": 7360,
      "Fernsehen": 7361,
      "verbreitet": 7362,
      "verursacht": 7363,
      "Eind": 7364,
      "Liter": 7365,
      "dur": 7366,
      "hm": 7367,
      "kers": 7368,
      "lies": 7369,
      "ösen": 7370,
      "ops": 7371,
      "opin": 7372,
      "grab": 7373,
      "Schimp": 7374,
      "finished": 7375,
      "durchgeführt": 7376,
      "preci": 7377,
      "erstes": 7378,
      "Untersuch": 7379,
      "lautet": 7380,
      "zurückzu": 7381,
      "krebs": 7382,
      "hinge": 7383,
      "Milliarde": 7384,
      "sequences": 7385,
      "itäts": 7386,
      "Organisationen": 7387,
      "dreams": 7388,
      "Nahrungs": 7389,
      "Institute": 7390,
      "Insekten": 7391,
      "26": 7392,
      "Zweitens": 7393,
      "fisch": 7394,
      "stam": 7395,
      "reib": 7396,
      "beteil": 7397,
      "derung": 7398,
      "dens": 7399,
      "despite": 7400,
      "artists": 7401,
      "Schmerz": 7402,
      "gross": 7403,
      "Sehr": 7404,
      "gestorben": 7405,
      "Mont": 7406,
      "freund": 7407,
      "magnet": 7408,
      "covered": 7409,
      "Fällen": 7410,
      "distance": 7411,
      "klärung": 7412,
      "Schwier": 7413,
      "verdienen": 7414,
      "buchstä": 7415,
      "gentle": 7416,
      "necessarily": 7417,
      "degree": 7418,
      "kümmern": 7419,
      "männ": 7420,
      "Klimawandel": 7421,
      "Polizei": 7422,
      "\"]": 7423,
      "Drei": 7424,
      "Gh": 7425,
      "Mas": 7426,
      "ibed": 7427,
      "laut": 7428,
      "mort": 7429,
      "uum": 7430,
      "zone": 7431,
      "ero": 7432,
      "berühr": 7433,
      "opposite": 7434,
      "notion": 7435,
      "Einfach": 7436,
      "reser": 7437,
      "adel": 7438,
      "parent": 7439,
      "Mechan": 7440,
      "bread": 7441,
      "schlimmer": 7442,
      "spring": 7443,
      "Robert": 7444,
      "Objekte": 7445,
      "Babys": 7446,
      "describe": 7447,
      "träge": 7448,
      "Hintergrund": 7449,
      "modell": 7450,
      "Plastik": 7451,
      "Nutzen": 7452,
      "Ple": 7453,
      "Säu": 7454,
      "Sorgen": 7455,
      "phin": 7456,
      "aspect": 7457,
      "vermutlich": 7458,
      "überzeugen": 7459,
      "Inform": 7460,
      "coal": 7461,
      "klass": 7462,
      "nachts": 7463,
      "geladen": 7464,
      "konstru": 7465,
      "herausgefunden": 7466,
      "norm": 7467,
      "easier": 7468,
      "Großteil": 7469,
      "Irak": 7470,
      "onym": 7471,
      "unterschiedlichen": 7472,
      "beschäftigt": 7473,
      "BM": 7474,
      "Masse": 7475,
      "Open": 7476,
      "bits": 7477,
      "rück": 7478,
      "ination": 7479,
      "tolle": 7480,
      "werte": 7481,
      "dahin": 7482,
      "izität": 7483,
      "creatures": 7484,
      "puts": 7485,
      "steller": 7486,
      "1960": 7487,
      "1980": 7488,
      "foreign": 7489,
      "epidem": 7490,
      "Zuerst": 7491,
      "2009": 7492,
      "heads": 7493,
      "phenomenon": 7494,
      "Mobil": 7495,
      "Janu": 7496,
      "Egypt": 7497,
      "Fein": 7498,
      "Have": 7499,
      "Mos": 7500,
      "Show": 7501,
      "Wü": 7502,
      "repe": 7503,
      "roof": 7504,
      "icted": 7505,
      "prior": 7506,
      "Best": 7507,
      "Graf": 7508,
      "partment": 7509,
      "2005": 7510,
      "calls": 7511,
      "voc": 7512,
      "sorry": 7513,
      "deutlich": 7514,
      "Forscher": 7515,
      "origin": 7516,
      "responsible": 7517,
      "Would": 7518,
      "museum": 7519,
      "destens": 7520,
      "illegal": 7521,
      "exerc": 7522,
      "arts": 7523,
      "Stift": 7524,
      "creation": 7525,
      "gelangen": 7526,
      "philosoph": 7527,
      "wiederum": 7528,
      "farmers": 7529,
      "Mark": 7530,
      "sicherlich": 7531,
      "clever": 7532,
      "Falls": 7533,
      "entirely": 7534,
      "However": 7535,
      "equip": 7536,
      "haupts": 7537,
      "British": 7538,
      "modernen": 7539,
      "suffering": 7540,
      "giant": 7541,
      "Ak": 7542,
      "Bal": 7543,
      "Fabr": 7544,
      "Satell": 7545,
      "caught": 7546,
      "narr": 7547,
      "ock": 7548,
      "ties": 7549,
      "orgt": 7550,
      "zukünft": 7551,
      "allge": 7552,
      "wirst": 7553,
      "nets": 7554,
      "acqu": 7555,
      "meter": 7556,
      "usw": 7557,
      "sphäre": 7558,
      "grass": 7559,
      "ibilities": 7560,
      "poem": 7561,
      "änglich": 7562,
      "besitzen": 7563,
      "importantly": 7564,
      "capable": 7565,
      "Bildern": 7566,
      "Experim": 7567,
      "erklärt": 7568,
      "western": 7569,
      "European": 7570,
      "Treib": 7571,
      "töten": 7572,
      "bomb": 7573,
      "repräsent": 7574,
      "Atom": 7575,
      "Beine": 7576,
      "Bay": 7577,
      "Get": 7578,
      "Valley": 7579,
      "läch": 7580,
      "oo": 7581,
      "pp": 7582,
      "shr": 7583,
      "tip": 7584,
      "wagen": 7585,
      "isher": 7586,
      "bear": 7587,
      "frist": 7588,
      "auseinander": 7589,
      "acting": 7590,
      "Statt": 7591,
      "Erfind": 7592,
      "selber": 7593,
      "ätsel": 7594,
      "istence": 7595,
      "bestimmen": 7596,
      "shouldn": 7597,
      "wichtigste": 7598,
      "Kindheit": 7599,
      "Obama": 7600,
      "sorgen": 7601,
      "Problemen": 7602,
      "außerdem": 7603,
      "Modelle": 7604,
      "events": 7605,
      "arbeiteten": 7606,
      "Charakter": 7607,
      "Basis": 7608,
      "dieselbe": 7609,
      "zufällig": 7610,
      "gebildet": 7611,
      "buchstäblich": 7612,
      "Dun": 7613,
      "ew": 7614,
      "hne": 7615,
      "sess": 7616,
      "wü": 7617,
      "ieten": 7618,
      "rob": 7619,
      "accur": 7620,
      "sphere": 7621,
      "Themen": 7622,
      "appreci": 7623,
      "barr": 7624,
      "wake": 7625,
      "puzz": 7626,
      "opened": 7627,
      "tempt": 7628,
      "harm": 7629,
      "holding": 7630,
      "Jugend": 7631,
      "Sometimes": 7632,
      "rupt": 7633,
      "billions": 7634,
      "benefits": 7635,
      "ultimately": 7636,
      "spannen": 7637,
      "placed": 7638,
      "brilliant": 7639,
      "Thomas": 7640,
      "Cha": 7641,
      "Kalifornien": 7642,
      "Nation": 7643,
      "nit": 7644,
      "iell": 7645,
      "geist": 7646,
      "sozusagen": 7647,
      "adapt": 7648,
      "coast": 7649,
      "Rede": 7650,
      "French": 7651,
      "itionen": 7652,
      "elements": 7653,
      "helps": 7654,
      "identif": 7655,
      "gefangen": 7656,
      "Experten": 7657,
      "finger": 7658,
      "General": 7659,
      "leading": 7660,
      "Gründen": 7661,
      "trägt": 7662,
      "virtual": 7663,
      "Leistung": 7664,
      "metaphor": 7665,
      "Laptop": 7666,
      "SP": 7667,
      "äss": 7668,
      "anst": 7669,
      "beige": 7670,
      "derzeit": 7671,
      "indic": 7672,
      "adig": 7673,
      "übertragen": 7674,
      "wohin": 7675,
      "iox": 7676,
      "cycl": 7677,
      "farm": 7678,
      "trained": 7679,
      "typical": 7680,
      "accident": 7681,
      "struggle": 7682,
      "determin": 7683,
      "Fünf": 7684,
      "Schimpan": 7685,
      "Affen": 7686,
      "Rob": 7687,
      "Videos": 7688,
      "Wet": 7689,
      "Zimmer": 7690,
      "iP": 7691,
      "lungs": 7692,
      "wander": 7693,
      "beat": 7694,
      "bezahlen": 7695,
      "weib": 7696,
      "entwerfen": 7697,
      "hest": 7698,
      "aufs": 7699,
      "hate": 7700,
      "ulen": 7701,
      "iban": 7702,
      "getö": 7703,
      "hohen": 7704,
      "disorder": 7705,
      "ester": 7706,
      "fähigkeit": 7707,
      "wave": 7708,
      "mindestens": 7709,
      "believed": 7710,
      "Lebensmittel": 7711,
      "horr": 7712,
      "erinnert": 7713,
      "definit": 7714,
      "schaute": 7715,
      "abilities": 7716,
      "Micros": 7717,
      "smell": 7718,
      "Higgs": 7719,
      "Kohle": 7720,
      "sac": 7721,
      "tap": 7722,
      "isierte": 7723,
      "iron": 7724,
      "rochen": 7725,
      "gency": 7726,
      "moon": 7727,
      "Very": 7728,
      "idents": 7729,
      "setzte": 7730,
      "matters": 7731,
      "Geräte": 7732,
      "hältnis": 7733,
      "leads": 7734,
      "organisms": 7735,
      "jährigen": 7736,
      "Besonder": 7737,
      "Strukturen": 7738,
      "Motor": 7739,
      "Mission": 7740,
      "Golf": 7741,
      "Erinnerung": 7742,
      "iabetes": 7743,
      "Sco": 7744,
      "river": 7745,
      "incent": 7746,
      "chern": 7747,
      "elte": 7748,
      "brief": 7749,
      "ernst": 7750,
      "anderem": 7751,
      "weiteren": 7752,
      "vollständig": 7753,
      "Asia": 7754,
      "nähr": 7755,
      "fordert": 7756,
      "öffentliche": 7757,
      "religi": 7758,
      "traffic": 7759,
      "benötigt": 7760,
      "require": 7761,
      "remote": 7762,
      "Brot": 7763,
      "Fund": 7764,
      "Fel": 7765,
      "Hil": 7766,
      "Zug": 7767,
      "categ": 7768,
      "py": 7769,
      "va": 7770,
      "äne": 7771,
      "stro": 7772,
      "theit": 7773,
      "wet": 7774,
      "istische": 7775,
      "sensit": 7776,
      "zep": 7777,
      "proud": 7778,
      "Schne": 7779,
      "cheap": 7780,
      "versus": 7781,
      "bling": 7782,
      "scar": 7783,
      "spect": 7784,
      "brings": 7785,
      "fält": 7786,
      "ossen": 7787,
      "Außen": 7788,
      "fährt": 7789,
      "Drittel": 7790,
      "broad": 7791,
      "employ": 7792,
      "studied": 7793,
      "Mexico": 7794,
      "protein": 7795,
      "Außerdem": 7796,
      "fassung": 7797,
      "Zivilis": 7798,
      "Institutionen": 7799,
      "Abs": 7800,
      "dou": 7801,
      "gä": 7802,
      "kolle": 7803,
      "nar": 7804,
      "rä": 7805,
      "tor": 7806,
      "truck": 7807,
      "ulous": 7808,
      "starb": 7809,
      "empt": 7810,
      "discovery": 7811,
      "surge": 7812,
      "Flor": 7813,
      "Bildschirm": 7814,
      "struktur": 7815,
      "colors": 7816,
      "gather": 7817,
      "childhood": 7818,
      "Verhaltens": 7819,
      "verrück": 7820,
      "Führung": 7821,
      "fördern": 7822,
      "verwandeln": 7823,
      "leadership": 7824,
      "verständlich": 7825,
      "commercial": 7826,
      "Bett": 7827,
      "Dimens": 7828,
      "Ecke": 7829,
      "Vision": 7830,
      "ky": 7831,
      "kan": 7832,
      "nissen": 7833,
      "nutr": 7834,
      "tour": 7835,
      "tissue": 7836,
      "zelle": 7837,
      "return": 7838,
      "seed": 7839,
      "meister": 7840,
      "agiert": 7841,
      "kton": 7842,
      "Weiß": 7843,
      "Geo": 7844,
      "lieber": 7845,
      "boten": 7846,
      "previous": 7847,
      "faith": 7848,
      "sprachen": 7849,
      "cortex": 7850,
      "falsche": 7851,
      "Fotograf": 7852,
      "Folge": 7853,
      "competition": 7854,
      "Gespräch": 7855,
      "Qualität": 7856,
      "maschine": 7857,
      "weapons": 7858,
      "dürfen": 7859,
      "32": 7860,
      "800": 7861,
      "Satur": 7862,
      "bow": 7863,
      "mouse": 7864,
      "tue": 7865,
      "ößen": 7866,
      "stolz": 7867,
      "onie": 7868,
      "adults": 7869,
      "ulating": 7870,
      "actions": 7871,
      "esehen": 7872,
      "hinweg": 7873,
      "würd": 7874,
      "Brenn": 7875,
      "Impf": 7876,
      "grown": 7877,
      "closed": 7878,
      "tests": 7879,
      "richtung": 7880,
      "schlechter": 7881,
      "Once": 7882,
      "existieren": 7883,
      "filled": 7884,
      "promise": 7885,
      "professional": 7886,
      "getötet": 7887,
      "Jungs": 7888,
      "Mad": 7889,
      "Spre": 7890,
      "fab": 7891,
      "ias": 7892,
      "unfortunately": 7893,
      "schalten": 7894,
      "agers": 7895,
      "ifically": 7896,
      "etime": 7897,
      "ideal": 7898,
      "daß": 7899,
      "interagieren": 7900,
      "subst": 7901,
      "achtung": 7902,
      "Interaktion": 7903,
      "springen": 7904,
      "hunderte": 7905,
      "mothers": 7906,
      "oceans": 7907,
      "destroy": 7908,
      "Apple": 7909,
      "Militär": 7910,
      "Standard": 7911,
      "gefährlich": 7912,
      "benefit": 7913,
      "target": 7914,
      "document": 7915,
      "fotograf": 7916,
      "Microsoft": 7917,
      ".'": 7918,
      "Tö": 7919,
      "cli": 7920,
      "fingen": 7921,
      "lu": 7922,
      "treiben": 7923,
      "iegen": 7924,
      "unts": 7925,
      "einsetzen": 7926,
      "leiten": 7927,
      "bell": 7928,
      "forschung": 7929,
      "jekten": 7930,
      "itete": 7931,
      "strahl": 7932,
      "gelesen": 7933,
      "betrie": 7934,
      "limited": 7935,
      "gründet": 7936,
      "jährige": 7937,
      "walls": 7938,
      "majority": 7939,
      "fighting": 7940,
      "Metap": 7941,
      "intellect": 7942,
      "Öffentlich": 7943,
      "Eindr": 7944,
      "Ghana": 7945,
      "Dinosaur": 7946,
      "sister": 7947,
      "äm": 7948,
      "iest": 7949,
      "atoren": 7950,
      "tritt": 7951,
      "Inde": 7952,
      "fehlen": 7953,
      "compar": 7954,
      "Gefahr": 7955,
      "Verkehr": 7956,
      "angel": 7957,
      "ärm": 7958,
      "Kontext": 7959,
      "lesson": 7960,
      "Frem": 7961,
      "zeiten": 7962,
      "irgendwann": 7963,
      "möglicherweise": 7964,
      "letztendlich": 7965,
      "Island": 7966,
      "ighten": 7967,
      "zählen": 7968,
      "ächtnis": 7969,
      "convin": 7970,
      "Heimat": 7971,
      "advantage": 7972,
      "concerned": 7973,
      "hauptsächlich": 7974,
      "Ku": 7975,
      "Lar": 7976,
      "Rahmen": 7977,
      "uert": 7978,
      "wing": 7979,
      "stuck": 7980,
      "reve": 7981,
      "gezogen": 7982,
      "weak": 7983,
      "verbracht": 7984,
      "immun": 7985,
      "novel": 7986,
      "forced": 7987,
      "agne": 7988,
      "eler": 7989,
      "ometers": 7990,
      "unsicht": 7991,
      "logie": 7992,
      "aham": 7993,
      "sculpt": 7994,
      "gesund": 7995,
      "gelang": 7996,
      "newsp": 7997,
      "1950": 7998,
      "belief": 7999,
      "Bildungs": 8000,
      "ification": 8001,
      "entwickelte": 8002,
      "rotz": 8003,
      "deeply": 8004,
      "begeg": 8005,
      "separate": 8006,
      "quantum": 8007,
      "probieren": 8008,
      "überrascht": 8009,
      "Teles": 8010,
      "Jim": 8011,
      "Jack": 8012,
      "Rom": 8013,
      "Sens": 8014,
      "hst": 8015,
      "jump": 8016,
      "arms": 8017,
      "sector": 8018,
      "gelt": 8019,
      "igend": 8020,
      "Erleb": 8021,
      "dafr": 8022,
      "drückt": 8023,
      "starke": 8024,
      "netz": 8025,
      "detwas": 8026,
      "gegenseit": 8027,
      "investment": 8028,
      "Post": 8029,
      "Gegenteil": 8030,
      "architect": 8031,
      "Quadrat": 8032,
      "95": 8033,
      "Ox": 8034,
      "jahr": 8035,
      "sou": 8036,
      "via": 8037,
      "erweit": 8038,
      "unbe": 8039,
      "einiger": 8040,
      "noise": 8041,
      "mov": 8042,
      "manage": 8043,
      "attach": 8044,
      "factory": 8045,
      "failed": 8046,
      "welchen": 8047,
      "bereich": 8048,
      "schrift": 8049,
      "Haiti": 8050,
      "engineers": 8051,
      "lernt": 8052,
      "emotions": 8053,
      "Schwester": 8054,
      "Fleisch": 8055,
      "Perspektive": 8056,
      "Hör": 8057,
      "Kaffe": 8058,
      "Oly": 8059,
      "vac": 8060,
      "stür": 8061,
      "stone": 8062,
      "uner": 8063,
      "asche": 8064,
      "lebe": 8065,
      "weiss": 8066,
      "bright": 8067,
      "Begriff": 8068,
      "flächen": 8069,
      "click": 8070,
      "treated": 8071,
      "gewisser": 8072,
      "Meilen": 8073,
      "Defin": 8074,
      "Landwirtschaft": 8075,
      "wahren": 8076,
      "compared": 8077,
      "Sprachen": 8078,
      "appeared": 8079,
      "Bauern": 8080,
      "university": 8081,
      "llowed": 8082,
      "Autor": 8083,
      "constantly": 8084,
      "erkannte": 8085,
      "Konflikt": 8086,
      "esterday": 8087,
      "Link": 8088,
      "Law": 8089,
      "Mac": 8090,
      "SS": 8091,
      "bum": 8092,
      "cro": 8093,
      "wahre": 8094,
      "seat": 8095,
      "gehabt": 8096,
      "zubringen": 8097,
      "fried": 8098,
      "sparen": 8099,
      "ulf": 8100,
      "Innen": 8101,
      "fell": 8102,
      "Eng": 8103,
      "glam": 8104,
      "insight": 8105,
      "1970": 8106,
      "married": 8107,
      "besseren": 8108,
      "legte": 8109,
      "Everybody": 8110,
      "cognitive": 8111,
      "Kurz": 8112,
      "stärker": 8113,
      "Häuser": 8114,
      "fascinating": 8115,
      "verantwortlich": 8116,
      "Olymp": 8117,
      "Dok": 8118,
      "Sing": 8119,
      "ole": 8120,
      "tough": 8121,
      "erlebt": 8122,
      "erkennt": 8123,
      "aust": 8124,
      "moves": 8125,
      "strength": 8126,
      "otherwise": 8127,
      "Grenze": 8128,
      "pred": 8129,
      "chtigkeit": 8130,
      "brauchten": 8131,
      "lebens": 8132,
      "surprise": 8133,
      "hypo": 8134,
      "Mail": 8135,
      "wunderbare": 8136,
      "operating": 8137,
      "leaving": 8138,
      "Wahrneh": 8139,
      "acceler": 8140,
      "dauert": 8141,
      "paying": 8142,
      "wirtschaftlichen": 8143,
      "riage": 8144,
      "slowly": 8145,
      "wearing": 8146,
      "influence": 8147,
      "Wettbewer": 8148,
      "begeistert": 8149,
      "28": 8150,
      "700": 8151,
      "Eig": 8152,
      "Maus": 8153,
      "Por": 8154,
      "Roll": 8155,
      "ahe": 8156,
      "dome": 8157,
      "danc": 8158,
      "hte": 8159,
      "ühren": 8160,
      "schien": 8161,
      "entliche": 8162,
      "iern": 8163,
      "fresh": 8164,
      "managed": 8165,
      "extin": 8166,
      "hergestellt": 8167,
      "apped": 8168,
      "Three": 8169,
      "hlten": 8170,
      "vorhand": 8171,
      "aking": 8172,
      "volunte": 8173,
      "gebrochen": 8174,
      "breath": 8175,
      "angene": 8176,
      "versuchten": 8177,
      "Nobel": 8178,
      "nächstes": 8179,
      "richtungen": 8180,
      "Does": 8181,
      "höre": 8182,
      "photograp": 8183,
      "bemerkt": 8184,
      "described": 8185,
      "berühm": 8186,
      "spezif": 8187,
      "Hal": 8188,
      "othe": 8189,
      "eingesetzt": 8190,
      "teste": 8191,
      "iminal": 8192,
      "uries": 8193,
      "exhib": 8194,
      "fellow": 8195,
      "angle": 8196,
      "begins": 8197,
      "erster": 8198,
      "Stress": 8199,
      "Mount": 8200,
      "president": 8201,
      "erzähle": 8202,
      "interessieren": 8203,
      "normalen": 8204,
      "ported": 8205,
      "ähnliche": 8206,
      "consumption": 8207,
      "insects": 8208,
      ".«": 8209,
      "Akt": 8210,
      "Aug": 8211,
      "Händen": 8212,
      "Kn": 8213,
      "LA": 8214,
      "Top": 8215,
      "deinen": 8216,
      "echten": 8217,
      "gie": 8218,
      "zed": 8219,
      "enable": 8220,
      "decl": 8221,
      "depression": 8222,
      "soil": 8223,
      "ida": 8224,
      "sichten": 8225,
      "Start": 8226,
      "State": 8227,
      "quenz": 8228,
      "Project": 8229,
      "Algorith": 8230,
      "interaction": 8231,
      "independent": 8232,
      "demokrat": 8233,
      "argue": 8234,
      "feedback": 8235,
      "perfectly": 8236,
      "praktisch": 8237,
      "Galaxien": 8238,
      "graduate": 8239,
      "Stanford": 8240,
      "irgendetwas": 8241,
      "gäbe": 8242,
      "Bush": 8243,
      "Fig": 8244,
      "Hollywood": 8245,
      "Lern": 8246,
      "Net": 8247,
      "Sein": 8248,
      "gers": 8249,
      "jum": 8250,
      "zliche": 8251,
      "stabil": 8252,
      "asi": 8253,
      "teid": 8254,
      "verhindern": 8255,
      "aming": 8256,
      "nest": 8257,
      "trip": 8258,
      "steps": 8259,
      "agr": 8260,
      "planning": 8261,
      "cloud": 8262,
      "Orig": 8263,
      "hyper": 8264,
      "belieb": 8265,
      "views": 8266,
      "paint": 8267,
      "Hotel": 8268,
      "gyp": 8269,
      "doppelt": 8270,
      "nötig": 8271,
      "Öffentlichkeit": 8272,
      "29": 8273,
      "Cr": 8274,
      "Pac": 8275,
      "Up": 8276,
      "equal": 8277,
      "furcht": 8278,
      "izen": 8279,
      "kat": 8280,
      "stup": 8281,
      "stimmen": 8282,
      "refer": 8283,
      "vergleichen": 8284,
      "veget": 8285,
      "entworfen": 8286,
      "desert": 8287,
      "Verstand": 8288,
      "due": 8289,
      "Zucker": 8290,
      "organic": 8291,
      "meistens": 8292,
      "Gedanke": 8293,
      "Kapit": 8294,
      "strategy": 8295,
      "Brow": 8296,
      "Ill": 8297,
      "Kal": 8298,
      "Mund": 8299,
      "Rie": 8300,
      "Sor": 8301,
      "Wa": 8302,
      "oret": 8303,
      "instrument": 8304,
      "invisible": 8305,
      "replace": 8306,
      "beantworten": 8307,
      "dert": 8308,
      "whom": 8309,
      "tri": 8310,
      "agram": 8311,
      "Wellen": 8312,
      "grat": 8313,
      "heran": 8314,
      "illustr": 8315,
      "Schiff": 8316,
      "Ernähr": 8317,
      "fügt": 8318,
      "males": 8319,
      "musst": 8320,
      "unterscheiden": 8321,
      "starten": 8322,
      "Manhat": 8323,
      "talks": 8324,
      "Bras": 8325,
      "fourth": 8326,
      "testing": 8327,
      "Minute": 8328,
      "operate": 8329,
      "somit": 8330,
      "emplo": 8331,
      "leichter": 8332,
      "circle": 8333,
      "universal": 8334,
      "civilization": 8335,
      "Aktivität": 8336,
      "mäßig": 8337,
      "Laufe": 8338,
      "120": 8339,
      "Fant": 8340,
      "Haufen": 8341,
      "Lied": 8342,
      "günst": 8343,
      "hes": 8344,
      "hoffen": 8345,
      "videos": 8346,
      "gehören": 8347,
      "schick": 8348,
      "schule": 8349,
      "artific": 8350,
      "merken": 8351,
      "Stimmen": 8352,
      "drin": 8353,
      "driven": 8354,
      "followed": 8355,
      "everyday": 8356,
      "wenigen": 8357,
      "führten": 8358,
      "Bruder": 8359,
      "beschleun": 8360,
      "clock": 8361,
      "colon": 8362,
      "Korea": 8363,
      "Produktion": 8364,
      "bekannten": 8365,
      "invited": 8366,
      "Katastrop": 8367,
      "wechseln": 8368,
      "mentioned": 8369,
      "Erkenntnis": 8370,
      "33": 8371,
      "dol": 8372,
      "gment": 8373,
      "mi": 8374,
      "unless": 8375,
      "ising": 8376,
      "loge": 8377,
      "benutz": 8378,
      "management": 8379,
      "uliert": 8380,
      "Arg": 8381,
      "angehen": 8382,
      "Eins": 8383,
      "gespiel": 8384,
      "bares": 8385,
      "wegs": 8386,
      "spielte": 8387,
      "interessanter": 8388,
      "beln": 8389,
      "harder": 8390,
      "wichtigen": 8391,
      "accord": 8392,
      "linken": 8393,
      "kriegen": 8394,
      "Politiker": 8395,
      "homes": 8396,
      "multiple": 8397,
      "Moleküle": 8398,
      "gruppe": 8399,
      "nannte": 8400,
      "wisdom": 8401,
      "ernsth": 8402,
      "effizient": 8403,
      "Deutsch": 8404,
      "Experimente": 8405,
      "Gas": 8406,
      "Hack": 8407,
      "Les": 8408,
      "Pra": 8409,
      "Rot": 8410,
      "Sur": 8411,
      "Sah": 8412,
      "pflanzen": 8413,
      "inkt": 8414,
      "meat": 8415,
      "aufhören": 8416,
      "ischt": 8417,
      "bra": 8418,
      "construction": 8419,
      "önlichkeit": 8420,
      "desire": 8421,
      "artigen": 8422,
      "Verletz": 8423,
      "kombin": 8424,
      "hasn": 8425,
      "nochmal": 8426,
      "ients": 8427,
      "Zuschau": 8428,
      "gestern": 8429,
      "coral": 8430,
      "Dabei": 8431,
      "Kombin": 8432,
      "magazine": 8433,
      "Normal": 8434,
      "flege": 8435,
      "photos": 8436,
      "appropr": 8437,
      "privile": 8438,
      "Bewegungen": 8439,
      "mathematics": 8440,
      "Planet": 8441,
      "Texas": 8442,
      "Folgendes": 8443,
      "principles": 8444,
      "Gewebe": 8445,
      "Audience": 8446,
      "Kohlenstoff": 8447,
      "stammt": 8448,
      "85": 8449,
      "Dad": 8450,
      "Each": 8451,
      "Que": 8452,
      "Ug": 8453,
      "Vis": 8454,
      "etry": 8455,
      "hip": 8456,
      "armen": 8457,
      "istischen": 8458,
      "ibes": 8459,
      "Beob": 8460,
      "Beweis": 8461,
      "angesehen": 8462,
      "20th": 8463,
      "geschickt": 8464,
      "Krise": 8465,
      "generate": 8466,
      "magn": 8467,
      "ängst": 8468,
      "Obwohl": 8469,
      "schrän": 8470,
      "plication": 8471,
      "bereitet": 8472,
      "wissenschaftlichen": 8473,
      "currently": 8474,
      "surprised": 8475,
      "received": 8476,
      "kompliziert": 8477,
      "ibuted": 8478,
      "hoffentlich": 8479,
      "Individuen": 8480,
      "Eigentlich": 8481,
      "Fas": 8482,
      "Found": 8483,
      "Jem": 8484,
      "gap": 8485,
      "lunch": 8486,
      "nut": 8487,
      "ray": 8488,
      "erscheinen": 8489,
      "theater": 8490,
      "section": 8491,
      "benen": 8492,
      "gold": 8493,
      "asten": 8494,
      "izz": 8495,
      "Neben": 8496,
      "Auswahl": 8497,
      "ffiz": 8498,
      "avig": 8499,
      "berech": 8500,
      "Ihres": 8501,
      "Abschluss": 8502,
      "businesses": 8503,
      "limit": 8504,
      "Irgend": 8505,
      "bauten": 8506,
      "equivalent": 8507,
      "unterschiedlich": 8508,
      "Etwas": 8509,
      "vehicle": 8510,
      "Metapher": 8511,
      "gespielt": 8512,
      "Rätsel": 8513,
      "Spiegel": 8514,
      "Tie": 8515,
      "Women": 8516,
      "nic": 8517,
      "chain": 8518,
      "andem": 8519,
      "bekamen": 8520,
      "zuzu": 8521,
      "entspricht": 8522,
      "heil": 8523,
      "acle": 8524,
      "adult": 8525,
      "worried": 8526,
      "Dass": 8527,
      "scen": 8528,
      "crime": 8529,
      "emiss": 8530,
      "trop": 8531,
      "calling": 8532,
      "ships": 8533,
      "Elektro": 8534,
      "habit": 8535,
      "investig": 8536,
      "heimer": 8537,
      "Kenya": 8538,
      "Andere": 8539,
      "wesentlich": 8540,
      "spüren": 8541,
      "Australia": 8542,
      "Satelliten": 8543,
      "Schimpansen": 8544,
      "Hall": 8545,
      "Mütter": 8546,
      "Pfer": 8547,
      "Trotz": 8548,
      "blichkeit": 8549,
      "battle": 8550,
      "pher": 8551,
      "ßt": 8552,
      "amt": 8553,
      "urally": 8554,
      "traur": 8555,
      "aufbauen": 8556,
      "maxim": 8557,
      "könnt": 8558,
      "Schu": 8559,
      "Zeich": 8560,
      "prefer": 8561,
      "solid": 8562,
      "suchte": 8563,
      "brauche": 8564,
      "designing": 8565,
      "vibr": 8566,
      "vote": 8567,
      "Toilet": 8568,
      "reduzieren": 8569,
      "wirtschaftliche": 8570,
      "survival": 8571,
      "schwarz": 8572,
      "detail": 8573,
      "agriculture": 8574,
      "möglichkeiten": 8575,
      "Eindruck": 8576,
      "movies": 8577,
      "Manhattan": 8578,
      "Ganze": 8579,
      "Kein": 8580,
      "Nationen": 8581,
      "SE": 8582,
      "cute": 8583,
      "engl": 8584,
      "chicken": 8585,
      "itzt": 8586,
      "dennoch": 8587,
      "former": 8588,
      "perman": 8589,
      "Website": 8590,
      "Lebe": 8591,
      "quiet": 8592,
      "Reich": 8593,
      "müsste": 8594,
      "195": 8595,
      "raw": 8596,
      "expert": 8597,
      "player": 8598,
      "Chirur": 8599,
      "2004": 8600,
      "Germany": 8601,
      "normale": 8602,
      "Körpers": 8603,
      "allerdings": 8604,
      "Joe": 8605,
      "languages": 8606,
      "Everything": 8607,
      "Welche": 8608,
      "Weltraum": 8609,
      "molecule": 8610,
      "Tests": 8611,
      "medizinische": 8612,
      "galaxies": 8613,
      "debate": 8614,
      "astronom": 8615,
      "Emot": 8616,
      "Other": 8617,
      "PC": 8618,
      "PM": 8619,
      "pages": 8620,
      "wich": 8621,
      "erne": 8622,
      "leitet": 8623,
      "weather": 8624,
      "entstanden": 8625,
      "ichts": 8626,
      "users": 8627,
      "stemen": 8628,
      "warming": 8629,
      "exists": 8630,
      "existence": 8631,
      "ckte": 8632,
      "uchte": 8633,
      "Schwer": 8634,
      "setting": 8635,
      "paralle": 8636,
      "genauer": 8637,
      "eleph": 8638,
      "bedro": 8639,
      "keeping": 8640,
      "micals": 8641,
      "engineer": 8642,
      "contact": 8643,
      "drawing": 8644,
      "location": 8645,
      "schwarze": 8646,
      "Methoden": 8647,
      "laptop": 8648,
      "nützlich": 8649,
      "lustig": 8650,
      "diskut": 8651,
      "normally": 8652,
      "-,": 8653,
      "Ever": 8654,
      "Hi": 8655,
      "Ham": 8656,
      "Pen": 8657,
      "Pfl": 8658,
      "pure": 8659,
      "ency": 8660,
      "ani": 8661,
      "asks": 8662,
      "eindeut": 8663,
      "ordent": 8664,
      "icing": 8665,
      "warf": 8666,
      "Ins": 8667,
      "ibli": 8668,
      "tape": 8669,
      "chemicals": 8670,
      "teln": 8671,
      "highest": 8672,
      "Kräfte": 8673,
      "organized": 8674,
      "generations": 8675,
      "identify": 8676,
      "hopefully": 8677,
      "Gedächtnis": 8678,
      "watched": 8679,
      "continent": 8680,
      "classroom": 8681,
      "Quanten": 8682,
      "fields": 8683,
      "wärt": 8684,
      "Titan": 8685,
      "Budd": 8686,
      "bezahlt": 8687,
      "Bob": 8688,
      "Dop": 8689,
      "Fakten": 8690,
      "Hallo": 8691,
      "Klang": 8692,
      "NS": 8693,
      "dinner": 8694,
      "lass": 8695,
      "mile": 8696,
      "nutzt": 8697,
      "zungen": 8698,
      "erfinden": 8699,
      "absor": 8700,
      "roten": 8701,
      "steuern": 8702,
      "lyn": 8703,
      "ctic": 8704,
      "Theater": 8705,
      "saved": 8706,
      "dran": 8707,
      "Rechte": 8708,
      "gerät": 8709,
      "izont": 8710,
      "versorg": 8711,
      "otic": 8712,
      "geschlagen": 8713,
      "Flag": 8714,
      "Gehirne": 8715,
      "connections": 8716,
      "channel": 8717,
      "Gegensatz": 8718,
      "sentence": 8719,
      "grandmother": 8720,
      "Gleiche": 8721,
      "clinical": 8722,
      "galaxy": 8723,
      "Cent": 8724,
      "cards": 8725,
      "suff": 8726,
      "south": 8727,
      "ökonom": 8728,
      "reisen": 8729,
      "toward": 8730,
      "verbr": 8731,
      "imit": 8732,
      "keys": 8733,
      "academ": 8734,
      "ifying": 8735,
      "Verbre": 8736,
      "driver": 8737,
      "thinks": 8738,
      "scene": 8739,
      "resource": 8740,
      "Wieso": 8741,
      "hörten": 8742,
      "kräfte": 8743,
      "Zuhause": 8744,
      "curious": 8745,
      "Black": 8746,
      "north": 8747,
      "immung": 8748,
      "Jeden": 8749,
      "Elemente": 8750,
      "beeindruck": 8751,
      "seriously": 8752,
      "soldiers": 8753,
      "kürzlich": 8754,
      "houses": 8755,
      "spoke": 8756,
      "Kaffee": 8757,
      "vorhanden": 8758,
      "Jemand": 8759,
      "Fett": 8760,
      "Lu": 8761,
      "Swe": 8762,
      "Sud": 8763,
      "Willi": 8764,
      "rum": 8765,
      "staben": 8766,
      "restr": 8767,
      "theorie": 8768,
      "toler": 8769,
      "verbrauch": 8770,
      "ette": 8771,
      "admit": 8772,
      "expression": 8773,
      "cking": 8774,
      "uppen": 8775,
      "vieler": 8776,
      "portion": 8777,
      "Mitarbeiter": 8778,
      "ordnung": 8779,
      "schneiden": 8780,
      "opening": 8781,
      "leaves": 8782,
      "Gesundheitsw": 8783,
      "Forschungs": 8784,
      "kilometers": 8785,
      "Stoff": 8786,
      "threat": 8787,
      "launched": 8788,
      "President": 8789,
      "nervous": 8790,
      "associated": 8791,
      "William": 8792,
      "Batter": 8793,
      "Day": 8794,
      "Näch": 8795,
      "blieb": 8796,
      "dial": 8797,
      "ell": 8798,
      "ration": 8799,
      "Ägyp": 8800,
      "erve": 8801,
      "angr": 8802,
      "ata": 8803,
      "omin": 8804,
      "denk": 8805,
      "verbrachte": 8806,
      "etzen": 8807,
      "libr": 8808,
      "bru": 8809,
      "exe": 8810,
      "maint": 8811,
      "shif": 8812,
      "Ansicht": 8813,
      "caused": 8814,
      "fernen": 8815,
      "Zeitalter": 8816,
      "Vorteil": 8817,
      "folks": 8818,
      "Nachdem": 8819,
      "2001": 8820,
      "possibilities": 8821,
      "kurzen": 8822,
      "processes": 8823,
      "Element": 8824,
      "Peter": 8825,
      "Gemeinden": 8826,
      "Organismen": 8827,
      "professor": 8828,
      "safety": 8829,
      "tags": 8830,
      "forests": 8831,
      "verbreiten": 8832,
      "experienced": 8833,
      "natürlichen": 8834,
      "discuss": 8835,
      "Tausende": 8836,
      "principle": 8837,
      "Entdeckung": 8838,
      "hidden": 8839,
      "credit": 8840,
      "beispiel": 8841,
      "Grafik": 8842,
      "equipment": 8843,
      "Uganda": 8844,
      "Garten": 8845,
      "Hins": 8846,
      "Kleid": 8847,
      "Pu": 8848,
      "clip": 8849,
      "oth": 8850,
      "vas": 8851,
      "zunächst": 8852,
      "erled": 8853,
      "isierten": 8854,
      "auern": 8855,
      "verein": 8856,
      "zufrieden": 8857,
      "wieso": 8858,
      "brü": 8859,
      "angesch": 8860,
      "crimin": 8861,
      "waves": 8862,
      "relativ": 8863,
      "gesto": 8864,
      "simpl": 8865,
      "players": 8866,
      "fuge": 8867,
      "gramm": 8868,
      "2006": 8869,
      "compare": 8870,
      "Existenz": 8871,
      "Augenblick": 8872,
      "technical": 8873,
      "Generationen": 8874,
      "zugänglich": 8875,
      "chemistry": 8876,
      "bietet": 8877,
      "circum": 8878,
      "Australien": 8879,
      "fossil": 8880,
      "Brasilien": 8881,
      "employe": 8882,
      "Hinsicht": 8883,
      "Bein": 8884,
      "Dach": 8885,
      "Mä": 8886,
      "Mary": 8887,
      "Tour": 8888,
      "Ven": 8889,
      "yesterday": 8890,
      "stör": 8891,
      "island": 8892,
      "geändert": 8893,
      "acken": 8894,
      "explan": 8895,
      "pool": 8896,
      "assist": 8897,
      "Teen": 8898,
      "Gras": 8899,
      "ipp": 8900,
      "flat": 8901,
      "greif": 8902,
      "Träume": 8903,
      "losigkeit": 8904,
      "studieren": 8905,
      "Jeff": 8906,
      "distin": 8907,
      "Gedicht": 8908,
      "iloso": 8909,
      "Architekten": 8910,
      "distribution": 8911,
      "property": 8912,
      "Psych": 8913,
      "increasingly": 8914,
      "statistics": 8915,
      "Martin": 8916,
      "Epidem": 8917,
      "stupid": 8918,
      "Come": 8919,
      "hide": 8920,
      "rural": 8921,
      "infin": 8922,
      "bestand": 8923,
      "illness": 8924,
      "daily": 8925,
      "izop": 8926,
      "stellungen": 8927,
      "solch": 8928,
      "International": 8929,
      "Prä": 8930,
      "Arbeiten": 8931,
      "aturen": 8932,
      "beschlossen": 8933,
      "transformation": 8934,
      "economics": 8935,
      "signals": 8936,
      "Linien": 8937,
      "gewöhnlich": 8938,
      "Streit": 8939,
      "Milch": 8940,
      "verschwinden": 8941,
      "Mikroben": 8942,
      "layer": 8943,
      "morgens": 8944,
      "karte": 8945,
      "effektiv": 8946,
      "shapes": 8947,
      "Details": 8948,
      "Dinosaurier": 8949,
      "AB": 8950,
      "Billion": 8951,
      "Echt": 8952,
      "Letz": 8953,
      "Wild": 8954,
      "avor": 8955,
      "cil": 8956,
      "ipe": 8957,
      "soul": 8958,
      "ua": 8959,
      "äger": 8960,
      "reaction": 8961,
      "tober": 8962,
      "ault": 8963,
      "hafte": 8964,
      "acters": 8965,
      "umge": 8966,
      "meiste": 8967,
      "peak": 8968,
      "aret": 8969,
      "consequences": 8970,
      "Beweise": 8971,
      "quer": 8972,
      "liked": 8973,
      "Verb": 8974,
      "dry": 8975,
      "Armen": 8976,
      "Rechts": 8977,
      "streng": 8978,
      "nieder": 8979,
      "productive": 8980,
      "schwimmen": 8981,
      "uckt": 8982,
      "morrow": 8983,
      "ancen": 8984,
      "ruhig": 8985,
      "shoes": 8986,
      "arrived": 8987,
      "occup": 8988,
      "cutting": 8989,
      "Netzwerke": 8990,
      "Carol": 8991,
      "picked": 8992,
      "digitalen": 8993,
      "beobachtet": 8994,
      "Naja": 8995,
      "Japanese": 8996,
      "Stock": 8997,
      "Geheimnis": 8998,
      "heavy": 8999,
      "Oxford": 9000,
      "according": 9001,
      "47": 9002,
      "Gree": 9003,
      "Pfe": 9004,
      "cow": 9005,
      "ruf": 9006,
      "rates": 9007,
      "rhyth": 9008,
      "winter": 9009,
      "tocin": 9010,
      "auspiel": 9011,
      "spie": 9012,
      "desk": 9013,
      "article": 9014,
      "Schatten": 9015,
      "vorzu": 9016,
      "Anim": 9017,
      "lied": 9018,
      "halbe": 9019,
      "crash": 9020,
      "langweil": 9021,
      "Konsequ": 9022,
      "importance": 9023,
      "Landschaft": 9024,
      "Klin": 9025,
      "Yorker": 9026,
      "characters": 9027,
      "zentrum": 9028,
      "thesis": 9029,
      "persönlich": 9030,
      "satis": 9031,
      "zerstört": 9032,
      "mächtig": 9033,
      "bewegung": 9034,
      "öpfe": 9035,
      "analysis": 9036,
      "ibliothe": 9037,
      "Dro": 9038,
      "Dere": 9039,
      "Gere": 9040,
      "Tro": 9041,
      "fter": 9042,
      "wom": 9043,
      "ystem": 9044,
      "inson": 9045,
      "reward": 9046,
      "lets": 9047,
      "tomorrow": 9048,
      "verstand": 9049,
      "amed": 9050,
      "urer": 9051,
      "stehe": 9052,
      "liver": 9053,
      "Zell": 9054,
      "letters": 9055,
      "sample": 9056,
      "preis": 9057,
      "shel": 9058,
      "Umfeld": 9059,
      "reiche": 9060,
      "frem": 9061,
      "Doktor": 9062,
      "wondering": 9063,
      "definieren": 9064,
      "dealing": 9065,
      "essential": 9066,
      "komplexe": 9067,
      "dimensions": 9068,
      "Volk": 9069,
      "Smith": 9070,
      "Aspekt": 9071,
      "budget": 9072,
      "announ": 9073,
      "Lebewesen": 9074,
      "Wil": 9075,
      "mur": 9076,
      "pum": 9077,
      "ym": 9078,
      "alog": 9079,
      "ita": 9080,
      "leuchten": 9081,
      "geber": 9082,
      "heißen": 9083,
      "utt": 9084,
      "tert": 9085,
      "neutr": 9086,
      "ierer": 9087,
      "pest": 9088,
      "advert": 9089,
      "spät": 9090,
      "wobei": 9091,
      "plin": 9092,
      "uppe": 9093,
      "merzen": 9094,
      "kannte": 9095,
      "halts": 9096,
      "Health": 9097,
      "Vorfahren": 9098,
      "establ": 9099,
      "autonom": 9100,
      "Brücke": 9101,
      "pub": 9102,
      "sprech": 9103,
      "Klein": 9104,
      "Steuer": 9105,
      "Großmutter": 9106,
      "Quelle": 9107,
      "Freundin": 9108,
      "killing": 9109,
      "flip": 9110,
      "verbindet": 9111,
      "Kerl": 9112,
      "Nachbarn": 9113,
      "thropo": 9114,
      "aufregend": 9115,
      "Schnitt": 9116,
      "artificial": 9117,
      "BF": 9118,
      "Fast": 9119,
      "Rio": 9120,
      "Sir": 9121,
      "Sub": 9122,
      "Win": 9123,
      "drogen": 9124,
      "lic": 9125,
      "zing": 9126,
      "erscheint": 9127,
      "chimp": 9128,
      "annehmen": 9129,
      "anwenden": 9130,
      "ausch": 9131,
      "belong": 9132,
      "vergangen": 9133,
      "schlau": 9134,
      "neath": 9135,
      "agina": 9136,
      "Weile": 9137,
      "Beim": 9138,
      "quasi": 9139,
      "klen": 9140,
      "bles": 9141,
      "sser": 9142,
      "firm": 9143,
      "marriage": 9144,
      "Ausmaß": 9145,
      "producing": 9146,
      "awful": 9147,
      "Industr": 9148,
      "powered": 9149,
      "beschloss": 9150,
      "airplane": 9151,
      "TEDTalk": 9152,
      "Buchstaben": 9153,
      "cultures": 9154,
      "zoom": 9155,
      "Durchschnitt": 9156,
      "Viren": 9157,
      "unkle": 9158,
      "Erinnerungen": 9159,
      "kurzem": 9160,
      "iques": 9161,
      "dolphin": 9162,
      "?“": 9163,
      "Atem": 9164,
      "Lachen": 9165,
      "Mu": 9166,
      "sources": 9167,
      "wil": 9168,
      "oute": 9169,
      "igno": 9170,
      "hai": 9171,
      "negot": 9172,
      "dot": 9173,
      "perce": 9174,
      "prop": 9175,
      "fehl": 9176,
      "Their": 9177,
      "apie": 9178,
      "Erkrank": 9179,
      "hadn": 9180,
      "cents": 9181,
      "inning": 9182,
      "damer": 9183,
      "damage": 9184,
      "display": 9185,
      "vessel": 9186,
      "gewinn": 9187,
      "facts": 9188,
      "Entfern": 9189,
      "holes": 9190,
      "Sprach": 9191,
      "researchers": 9192,
      "electrical": 9193,
      "innovative": 9194,
      "Canada": 9195,
      "considered": 9196,
      "21st": 9197,
      "Britain": 9198,
      "Human": 9199,
      "grundlegende": 9200,
      "honor": 9201,
      "deeper": 9202,
      "satellite": 9203,
      "Please": 9204,
      "Informations": 9205,
      "empty": 9206,
      "convinced": 9207,
      "Foundation": 9208,
      "Emotionen": 9209,
      "izophren": 9210,
      "Bund": 9211,
      "Could": 9212,
      "Mama": 9213,
      "Tim": 9214,
      "Viet": 9215,
      "bine": 9216,
      "änen": 9217,
      "vermögen": 9218,
      "entgegen": 9219,
      "aggress": 9220,
      "mented": 9221,
      "prove": 9222,
      "ikalien": 9223,
      "shall": 9224,
      "Verhältnis": 9225,
      "symp": 9226,
      "feelings": 9227,
      "transmit": 9228,
      "collection": 9229,
      "Fälle": 9230,
      "graphie": 9231,
      "signs": 9232,
      "variety": 9233,
      "transpar": 9234,
      "battery": 9235,
      "übrig": 9236,
      "beinhal": 9237,
      "ähne": 9238,
      "Maßstab": 9239,
      "valuable": 9240,
      "Erwachsenen": 9241,
      "verfügbar": 9242,
      "Entwicklungsländern": 9243,
      "Dire": 9244,
      "Gand": 9245,
      "Ig": 9246,
      "Tonnen": 9247,
      "ae": 9248,
      "dum": 9249,
      "dün": 9250,
      "refuge": 9251,
      "orbit": 9252,
      "gewissen": 9253,
      "trum": 9254,
      "mitte": 9255,
      "poetry": 9256,
      "Erwart": 9257,
      "Alz": 9258,
      "acks": 9259,
      "whenever": 9260,
      "finish": 9261,
      "crete": 9262,
      "wäl": 9263,
      "garden": 9264,
      "Interessen": 9265,
      "losion": 9266,
      "elect": 9267,
      "transition": 9268,
      "status": 9269,
      "Kulturen": 9270,
      "beschäftigen": 9271,
      "terrorism": 9272,
      "platform": 9273,
      "Geräusch": 9274,
      "berührt": 9275,
      "48": 9276,
      "Roh": 9277,
      "Seine": 9278,
      "täu": 9279,
      "erstellt": 9280,
      "verwir": 9281,
      "vember": 9282,
      "icts": 9283,
      "icket": 9284,
      "dots": 9285,
      "ktoren": 9286,
      "Stau": 9287,
      "Erklärung": 9288,
      "drück": 9289,
      "drüben": 9290,
      "observ": 9291,
      "endung": 9292,
      "darstellen": 9293,
      "muscle": 9294,
      "underneath": 9295,
      "Seele": 9296,
      "wirkung": 9297,
      "empath": 9298,
      "monitor": 9299,
      "experts": 9300,
      "Komment": 9301,
      "studio": 9302,
      "blocks": 9303,
      "broke": 9304,
      "detect": 9305,
      "microbes": 9306,
      "facing": 9307,
      "inspiriert": 9308,
      "persönliche": 9309,
      "Verlust": 9310,
      "Risiken": 9311,
      "erwähnt": 9312,
      "Florida": 9313,
      "Wahrnehmung": 9314,
      "Deutschland": 9315,
      "Camp": 9316,
      "Gü": 9317,
      "Kurs": 9318,
      "RS": 9319,
      "Sum": 9320,
      "Zauber": 9321,
      "gay": 9322,
      "koll": 9323,
      "unken": 9324,
      "sets": 9325,
      "entertain": 9326,
      "agre": 9327,
      "anner": 9328,
      "ulin": 9329,
      "Weib": 9330,
      "brach": 9331,
      "grid": 9332,
      "Belo": 9333,
      "shoul": 9334,
      "gangs": 9335,
      "Analy": 9336,
      "igem": 9337,
      "blicken": 9338,
      "spruch": 9339,
      "Prim": 9340,
      "Arbeitspl": 9341,
      "corruption": 9342,
      "tested": 9343,
      "Antar": 9344,
      "Spektr": 9345,
      "consist": 9346,
      "peln": 9347,
      "traditionellen": 9348,
      "enorme": 9349,
      "contain": 9350,
      "zerstören": 9351,
      "dynamic": 9352,
      "Alzheimer": 9353,
      "Sar": 9354,
      "Winter": 9355,
      "Zitat": 9356,
      "migr": 9357,
      "rus": 9358,
      "anes": 9359,
      "arre": 9360,
      "selling": 9361,
      "abol": 9362,
      "umgeben": 9363,
      "aufgebaut": 9364,
      "deswegen": 9365,
      "iene": 9366,
      "pray": 9367,
      "appen": 9368,
      "izon": 9369,
      "Größen": 9370,
      "Zehn": 9371,
      "setzten": 9372,
      "langer": 9373,
      "Platt": 9374,
      "viruses": 9375,
      "Exp": 9376,
      "Werbung": 9377,
      "Fehl": 9378,
      "offenen": 9379,
      "stoßen": 9380,
      "winden": 9381,
      "messages": 9382,
      "techniques": 9383,
      "hilf": 9384,
      "Zweck": 9385,
      "Elektrizität": 9386,
      "prüfen": 9387,
      "gruppen": 9388,
      "Strategie": 9389,
      "notwendig": 9390,
      "Schwierigkeiten": 9391,
      "Wetter": 9392,
      "dafrika": 9393,
      "Fi": 9394,
      "Four": 9395,
      "Samm": 9396,
      "hur": 9397,
      "mad": 9398,
      "zlichen": 9399,
      "äst": 9400,
      "ergibt": 9401,
      "aled": 9402,
      "theoret": 9403,
      "trials": 9404,
      "added": 9405,
      "Instrument": 9406,
      "liest": 9407,
      "liefern": 9408,
      "Union": 9409,
      "ätigkeit": 9410,
      "formed": 9411,
      "ischem": 9412,
      "nett": 9413,
      "Aufnahme": 9414,
      "schlafen": 9415,
      "technologie": 9416,
      "sprung": 9417,
      "sprache": 9418,
      "skop": 9419,
      "voices": 9420,
      "Parte": 9421,
      "metal": 9422,
[...]
