{
  "version": "1.0",
  "truncation": null,
  "padding": null,
  "added_tokens": [
    {
      "id": 0,
      "content": "[UNK]",
      "single_word": false,
      "lstrip": false,
      "rstrip": false,
      "normalized": false,
      "special": true
    },
    {
      "id": 1,
      "content": "[CLS]",
      "single_word": false,
      "lstrip": false,
      "rstrip": false,
      "normalized": false,
      "special": true
    },
    {
      "id": 2,
      "content": "[SEP]",
      "single_word": false,
      "lstrip": false,
      "rstrip": false,
      "normalized": false,
      "special": true
    },
    {
      "id": 3,
      "content": "[PAD]",
      "single_word": false,
      "lstrip": false,
      "rstrip": false,
      "normalized": false,
      "special": true
    },
    {
      "id": 4,
      "content": "[MASK]",
      "single_word": false,
      "lstrip": false,
      "rstrip": false,
      "normalized": false,
      "special": true
    }
  ],
  "normalizer": null,
  "pre_tokenizer": {
    "type": "Whitespace"
  },
  "post_processor": null,
  "decoder": null,
  "model": {
    "type": "BPE",
    "dropout": null,
    "unk_token": "[UNK]",
    "continuing_subword_prefix": null,
    "end_of_word_suffix": null,
    "fuse_unk": false,
    "byte_fallback": false,
    "vocab": {
      "[UNK]": 0,
      "[CLS]": 1,
      "[SEP]": 2,
      "[PAD]": 3,
      "[MASK]": 4,
      "!": 5,
      "\"": 6,
      "'": 7,
      ",": 8,
      "-": 9,
      ".": 10,
      "0": 11,
      "1": 12,
      "2": 13,
      "3": 14,
      "4": 15,
      "5": 16,
      "6": 17,
      "8": 18,
      "9": 19,
      ":": 20,
      ";": 21,
      "?": 22,
      "A": 23,
      "B": 24,
      "C": 25,
      "D": 26,
      "E": 27,
      "F": 28,
      "G": 29,
      "H": 30,
      "I": 31,
      "J": 32,
      "K": 33,
      "L": 34,
      "M": 35,
      "N": 36,
      "O": 37,
      "P": 38,
      "R": 39,
      "S": 40,
      "T": 41,
      "U": 42,
      "V": 43,
      "W": 44,
      "Y": 45,
      "Z": 46,
      "a": 47,
      "b": 48,
      "c": 49,
      "d": 50,
      "e": 51,
      "f": 52,
      "g": 53,
      "h": 54,
      "i": 55,
      "j": 56,
      "k": 57,
      "l": 58,
      "m": 59,
      "n": 60,
      "o": 61,
      "p": 62,
      "q": 63,
      "r": 64,
      "s": 65,
      "t": 66,
      "u": 67,
      "v": 68,
      "w": 69,
      "x": 70,
      "y": 71,
      "z": 72,
      "ß": 73,
      "ä": 74,
      "ö": 75,
      "ü": 76,
      "en": 77,
      "er": 78,
      "ch": 79,
      "in": 80,
      "an": 81,
      "th": 82,
      "on": 83,
      "ie": 84,
      "es": 85,
      "at": 86,
      "is": 87,
      "or": 88,
      "it": 89,
      "un": 90,
      "ich": 91,
      "as": 92,
      "ar": 93,
      "ou": 94,
      "the": 95,
      "al": 96,
      "au": 97,
      "to": 98,
      "ein": 99,
      "re": 100,
      "te": 101,
      "and": 102,
      "le": 103,
      "ig": 104,
      "of": 105,
      "st": 106,
      "il": 107,
      "ing": 108,
      "be": 109,
      "el": 110,
      "und": 111,
      "der": 112,
      "ir": 113,
      "om": 114,
      "ge": 115,
      "ab": 116,
      "ed": 117,
      "ne": 118,
      "you": 119,
      "--": 120,
      "Sie": 121,
      "ion": 122,
      "im": 123,
      "ic": 124,
      "ur": 125,
      "ach": 126,
      "id": 127,
      "sch": 128,
      "ve": 129,
      "lo": 130,
      "se": 131,
      "ten": 132,
      "ere": 133,
      "ha": 134,
      "ent": 135,
      "hr": 136,
      "tr": 137,
      "that": 138,
      "die": 139,
      "zu": 140,
      "ist": 141,
      "eine": 142,
      "ay": 143,
      "nen": 144,
      "gen": 145,
      "ow": 146,
      "we": 147,
      "hat": 148,
      "was": 149,
      "wir": 150,
      "ant": 151,
      "est": 152,
      "auf": 153,
      "am": 154,
      "de": 155,
      "ff": 156,
      "ier": 157,
      "nd": 158,
      "so": 159,
      "us": 160,
      "ver": 161,
      "ann": 162,
      "he": 163,
      "lich": 164,
      "ber": 165,
      "ut": 166,
      "out": 167,
      "Ich": 168,
      "den": 169,
      "das": 170,
      "fr": 171,
      "for": 172,
      "go": 173,
      "pp": 174,
      "ck": 175,
      "ke": 176,
      "no": 177,
      "ter": 178,
      "von": 179,
      "ash": 180,
      "com": 181,
      "ien": 182,
      "man": 183,
      "ze": 184,
      "ate": 185,
      "icht": 186,
      "aus": 187,
      "And": 188,
      "fü": 189,
      "mit": 190,
      "ol": 191,
      "have": 192,
      "ben": 193,
      "ce": 194,
      "ly": 195,
      "sa": 196,
      "vie": 197,
      "war": 198,
      "what": 199,
      "ort": 200,
      "Ti": 201,
      "ct": 202,
      "sh": 203,
      "wi": 204,
      "über": 205,
      "ore": 206,
      "are": 207,
      "ill": 208,
      "about": 209,
      "Tipp": 210,
      "Ih": 211,
      "con": 212,
      "kt": 213,
      "pr": 214,
      "ser": 215,
      "ul": 216,
      "um": 217,
      "uch": 218,
      "ung": 219,
      "aur": 220,
      "ions": 221,
      "Tipper": 222,
      "It": 223,
      "ag": 224,
      "ain": 225,
      "ld": 226,
      "me": 227,
      "sp": 228,
      "ön": 229,
      "this": 230,
      "one": 231,
      "neu": 232,
      "Th": 233,
      "ad": 234,
      "li": 235,
      "ment": 236,
      "nach": 237,
      "sich": 238,
      "sel": 239,
      "all": 240,
      "ted": 241,
      "ome": 242,
      "estaur": 243,
      "für": 244,
      "with": 245,
      "estaurant": 246,
      "CO": 247,
      "Le": 248,
      "ah": 249,
      "gr": 250,
      "iv": 251,
      "kön": 252,
      "lim": 253,
      "ma": 254,
      "ner": 255,
      "sie": 256,
      "tz": 257,
      "tim": 258,
      "enn": 259,
      "eri": 260,
      "igen": 261,
      "hren": 262,
      "very": 263,
      "CO2": 264,
      "Be": 265,
      "Nash": 266,
      "We": 267,
      "ap": 268,
      "age": 269,
      "car": 270,
      "du": 271,
      "dann": 272,
      "ech": 273,
      "hen": 274,
      "ive": 275,
      "my": 276,
      "more": 277,
      "much": 278,
      "op": 279,
      "oth": 280,
      "pl": 281,
      "restaurant": 282,
      "ton": 283,
      "ust": 284,
      "vil": 285,
      "ation": 286,
      "uns": 287,
      "art": 288,
      "einen": 289,
      "get": 290,
      "aben": 291,
      "your": 292,
      "log": 293,
      "tru": 294,
      "ieren": 295,
      "viel": 296,
      "Ihnen": 297,
      "Nashvil": 298,
      "Nashville": 299,
      "Al": 300,
      "Au": 301,
      "Aus": 302,
      "Das": 303,
      "Er": 304,
      "In": 305,
      "Pr": 306,
      "Red": 307,
      "Wir": 308,
      "bon": 309,
      "can": 310,
      "cou": 311,
      "eff": 312,
      "fu": 313,
      "ht": 314,
      "je": 315,
      "mo": 316,
      "mer": 317,
      "nicht": 318,
      "os": 319,
      "qu": 320,
      "some": 321,
      "ves": 322,
      "wie": 323,
      "ers": 324,
      "eren": 325,
      "chen": 326,
      "ank": 327,
      "ess": 328,
      "ory": 329,
      "our": 330,
      "ige": 331,
      "omm": 332,
      "ice": 333,
      "schon": 334,
      "had": 335,
      "zum": 336,
      "going": 337,
      "oney": 338,
      "können": 339,
      "time": 340,
      "!\"": 341,
      "..": 342,
      "Da": 343,
      "Die": 344,
      "Sh": 345,
      "Wash": 346,
      "ack": 347,
      "br": 348,
      "cr": 349,
      "da": 350,
      "do": 351,
      "dr": 352,
      "ex": 353,
      "fe": 354,
      "fen": 355,
      "haben": 356,
      "kann": 357,
      "ll": 358,
      "mis": 359,
      "mich": 360,
      "mir": 361,
      "meine": 362,
      "ost": 363,
      "sl": 364,
      "sin": 365,
      "say": 366,
      "vest": 367,
      "wh": 368,
      "way": 369,
      "ern": 370,
      "che": 371,
      "ity": 372,
      "ungen": 373,
      "they": 374,
      "igeri": 375,
      "ight": 376,
      "story": 377,
      "ington": 378,
      "ell": 379,
      "elt": 380,
      "new": 381,
      "ick": 382,
      "urch": 383,
      "low": 384,
      "sehr": 385,
      "aufen": 386,
      "amil": 387,
      "dass": 388,
      "noch": 389,
      "oll": 390,
      "carbon": 391,
      "Auto": 392,
      "Shoney": 393,
      "Washington": 394,
      "miss": 395,
      "Aber": 396,
      "But": 397,
      "Es": 398,
      "Ein": 399,
      "Eff": 400,
      "For": 401,
      "Gore": 402,
      "Ma": 403,
      "Nigeri": 404,
      "St": 405,
      "The": 406,
      "Un": 407,
      "Und": 408,
      "akt": 409,
      "bst": 410,
      "back": 411,
      "clim": 412,
      "di": 413,
      "des": 414,
      "day": 415,
      "ect": 416,
      "gre": 417,
      "hn": 418,
      "hin": 419,
      "hal": 420,
      "hier": 421,
      "just": 422,
      "klich": 423,
      "mö": 424,
      "mal": 425,
      "mach": 426,
      "nur": 427,
      "ste": 428,
      "tal": 429,
      "tter": 430,
      "ure": 431,
      "wo": 432,
      "wr": 433,
      "wor": 434,
      "will": 435,
      "zur": 436,
      "ür": 437,
      "ück": 438,
      "end": 439,
      "then": 440,
      "there": 441,
      "ong": 442,
      "esch": 443,
      "auch": 444,
      "einer": 445,
      "redu": 446,
      "ign": 447,
      "iges": 448,
      "bei": 449,
      "ely": 450,
      "net": 451,
      "lot": 452,
      "dieser": 453,
      "wird": 454,
      "dem": 455,
      "from": 456,
      "frist": 457,
      "got": 458,
      "said": 459,
      "like": 460,
      "selves": 461,
      "Pro": 462,
      "Rede": 463,
      "slid": 464,
      "Autos": 465,
      "Nigeria": 466,
      "climate": 467,
      "Chr": 468,
      "Di": 469,
      "Gesch": 470,
      "Jan": 471,
      "KW": 472,
      "LKW": 473,
      "Mal": 474,
      "Now": 475,
      "Te": 476,
      "bo": 477,
      "bal": 478,
      "but": 479,
      "cy": 480,
      "cis": 481,
      "cal": 482,
      "cul": 483,
      "cost": 484,
      "eas": 485,
      "every": 486,
      "eech": 487,
      "eop": 488,
      "ger": 489,
      "gan": 490,
      "ging": 491,
      "glo": 492,
      "her": 493,
      "han": 494,
      "how": 495,
      "iz": 496,
      "iß": 497,
      "jed": 498,
      "kl": 499,
      "kn": 500,
      "kur": 501,
      "kam": 502,
      "komm": 503,
      "kaufen": 504,
      "lt": 505,
      "lie": 506,
      "night": 507,
      "ok": 508,
      "per": 509,
      "ple": 510,
      "port": 511,
      "peop": 512,
      "ren": 513,
      "rie": 514,
      "son": 515,
      "sam": 516,
      "tre": 517,
      "ug": 518,
      "up": 519,
      "uar": 520,
      "vor": 521,
      "went": 522,
      "want": 523,
      "wenn": 524,
      "welt": 525,
      "zä": 526,
      "ened": 527,
      "erzä": 528,
      "chte": 529,
      "thing": 530,
      "ies": 531,
      "ese": 532,
      "ise": 533,
      "isis": 534,
      "ische": 535,
      "ite": 536,
      "ichte": 537,
      "them": 538,
      "als": 539,
      "ause": 540,
      "teil": 541,
      "off": 542,
      "been": 543,
      "aber": 544,
      "ionen": 545,
      "icien": 546,
      "idd": 547,
      "ident": 548,
      "habe": 549,
      "tral": 550,
      "einem": 551,
      "wirklich": 552,
      "lichen": 553,
      "cks": 554,
      "not": 555,
      "nolog": 556,
      "come": 557,
      "comes": 558,
      "ienz": 559,
      "ichtig": 560,
      "show": 561,
      "Ihre": 562,
      "pro": 563,
      "speech": 564,
      "neue": 565,
      "neutral": 566,
      "selbst": 567,
      "make": 568,
      "apit": 569,
      "other": 570,
      "trucks": 571,
      "could": 572,
      "fuhren": 573,
      "oss": 574,
      "crisis": 575,
      "sind": 576,
      "talk": 577,
      "Chris": 578,
      "Geschichte": 579,
      "Januar": 580,
      "calcul": 581,
      "global": 582,
      "izienz": 583,
      "know": 584,
      "people": 585,
      "erzäh": 586,
      "iciency": 587,
      "'\"": 588,
      "An": 589,
      "Car": 590,
      "En": 591,
      "Ex": 592,
      "Ener": 593,
      "Emiss": 594,
      "Fl": 595,
      "Fr": 596,
      "Famil": 597,
      "Ge": 598,
      "Gr": 599,
      "Haus": 600,
      "Klim": 601,
      "Man": 602,
      "Mon": 603,
      "Mann": 604,
      "Nach": 605,
      "Part": 606,
      "Se": 607,
      "Str": 608,
      "US": 609,
      "Vie": 610,
      "You": 611,
      "air": 612,
      "ahr": 613,
      "ago": 614,
      "bu": 615,
      "by": 616,
      "bin": 617,
      "bes": 618,
      "bas": 619,
      "bar": 620,
      "bill": 621,
      "cause": 622,
      "capit": 623,
      "dar": 624,
      "durch": 625,
      "et": 626,
      "eid": 627,
      "emiss": 628,
      "ft": 629,
      "fre": 630,
      "famil": 631,
      "ges": 632,
      "gest": 633,
      "glich": 634,
      "har": 635,
      "here": 636,
      "home": 637,
      "if": 638,
      "ik": 639,
      "ip": 640,
      "ken": 641,
      "lan": 642,
      "men": 643,
      "midd": 644,
      "nie": 645,
      "od": 646,
      "oder": 647,
      "pa": 648,
      "pre": 649,
      "part": 650,
      "pos": 651,
      "run": 652,
      "she": 653,
      "sungen": 654,
      "ts": 655,
      "tun": 656,
      "tsch": 657,
      "ual": 658,
      "use": 659,
      "ufen": 660,
      "wä": 661,
      "wer": 662,
      "were": 663,
      "woll": 664,
      "wichtig": 665,
      "zen": 666,
      "zieren": 667,
      "zfrist": 668,
      "äs": 669,
      "öff": 670,
      "ösungen": 671,
      "ün": 672,
      "ens": 673,
      "ert": 674,
      "ink": 675,
      "invest": 676,
      "ans": 677,
      "than": 678,
      "these": 679,
      "think": 680,
      "ator": 681,
      "ations": 682,
      "ischen": 683,
      "itt": 684,
      "iten": 685,
      "itten": 686,
      "unter": 687,
      "unity": 688,
      "ould": 689,
      "alre": 690,
      "alle": 691,
      "ally": 692,
      "einiges": 693,
      "really": 694,
      "tell": 695,
      "anderen": 696,
      "leich": 697,
      "igt": 698,
      "because": 699,
      "eld": 700,
      "elab": 701,
      "ica": 702,
      "ices": 703,
      "achte": 704,
      "schn": 705,
      "look": 706,
      "see": 707,
      "weit": 708,
      "weiß": 709,
      "decis": 710,
      "ffen": 711,
      "sol": 712,
      "form": 713,
      "ashow": 714,
      "ienrestaurant": 715,
      "many": 716,
      "führen": 717,
      "sagen": 718,
      "waren": 719,
      "cons": 720,
      "There": 721,
      "ady": 722,
      "ahre": 723,
      "iven": 724,
      "iving": 725,
      "tzt": 726,
      "tzten": 727,
      "plan": 728,
      "true": 729,
      "Ausg": 730,
      "Invest": 731,
      "couple": 732,
      "effect": 733,
      "movie": 734,
      "wieder": 735,
      "ourselves": 736,
      "...": 737,
      "saying": 738,
      "who": 739,
      "Effizienz": 740,
      "dire": 741,
      "design": 742,
      "halt": 743,
      "möchte": 744,
      "stehen": 745,
      "world": 746,
      "Produ": 747,
      "slides": 748,
      "Diashow": 749,
      "heraus": 750,
      "jedes": 751,
      "kurzfrist": 752,
      "Entsch": 753,
      "Energ": 754,
      "Emissionen": 755,
      "Familienrestaurant": 756,
      "besser": 757,
      "emissions": 758,
      "family": 759,
      "gestern": 760,
      "middle": 761,
      "posit": 762,
      "already": 763,
      "elabor": 764,
      "Entscheid": 765,
      ".\"": 766,
      ".'\"": 767,
      "23": 768,
      "40": 769,
      "50": 770,
      "?\"": 771,
      "At": 772,
      "Az": 773,
      "Air": 774,
      "Afr": 775,
      "Aben": 776,
      "Amer": 777,
      "Bau": 778,
      "Bil": 779,
      "Bere": 780,
      "Bill": 781,
      "CC": 782,
      "Cl": 783,
      "Con": 784,
      "Call": 785,
      "Do": 786,
      "Der": 787,
      "Dank": 788,
      "ED": 789,
      "Fil": 790,
      "Gan": 791,
      "Geld": 792,
      "Im": 793,
      "Jo": 794,
      "Jay": 795,
      "Len": 796,
      "Lago": 797,
      "Lösungen": 798,
      "Men": 799,
      "May": 800,
      "No": 801,
      "Nische": 802,
      "Restaurant": 803,
      "Rech": 804,
      "Rufen": 805,
      "Sch": 806,
      "Tr": 807,
      "Taur": 808,
      "Tenn": 809,
      "Tech": 810,
      "Two": 811,
      "TED": 812,
      "Um": 813,
      "Vi": 814,
      "Ver": 815,
      "Vin": 816,
      "Vers": 817,
      "Vice": 818,
      "Wer": 819,
      "Wie": 820,
      "Was": 821,
      "Wort": 822,
      "Wah": 823,
      "Welt": 824,
      "af": 825,
      "ak": 826,
      "ave": 827,
      "agen": 828,
      "ade": 829,
      "app": 830,
      "acr": 831,
      "ban": 832,
      "big": 833,
      "bus": 834,
      "ced": 835,
      "cur": 836,
      "ctr": 837,
      "ds": 838,
      "don": 839,
      "dow": 840,
      "date": 841,
      "dachte": 842,
      "ep": 843,
      "ele": 844,
      "eil": 845,
      "fo": 846,
      "fin": 847,
      "fle": 848,
      "fach": 849,
      "fly": 850,
      "ful": 851,
      "feren": 852,
      "fakt": 853,
      "foss": 854,
      "gh": 855,
      "gt": 856,
      "gy": 857,
      "gin": 858,
      "gat": 859,
      "gte": 860,
      "gab": 861,
      "give": 862,
      "gfrist": 863,
      "gave": 864,
      "hö": 865,
      "hie": 866,
      "hre": 867,
      "hand": 868,
      "hne": 869,
      "hnen": 870,
      "hol": 871,
      "ib": 872,
      "ider": 873,
      "ihn": 874,
      "jor": 875,
      "kein": 876,
      "len": 877,
      "ler": 878,
      "las": 879,
      "lau": 880,
      "lte": 881,
      "land": 882,
      "lant": 883,
      "long": 884,
      "litt": 885,
      "ming": 886,
      "mus": 887,
      "mung": 888,
      "meiner": 889,
      "mely": 890,
      "mper": 891,
      "nis": 892,
      "nte": 893,
      "ning": 894,
      "nam": 895,
      "nah": 896,
      "nice": 897,
      "ose": 898,
      "over": 899,
      "opp": 900,
      "olog": 901,
      "oices": 902,
      "pt": 903,
      "pay": 904,
      "purch": 905,
      "rt": 906,
      "rich": 907,
      "rent": 908,
      "rise": 909,
      "rmung": 910,
      "su": 911,
      "sen": 912,
      "sor": 913,
      "sein": 914,
      "sion": 915,
      "sign": 916,
      "tt": 917,
      "tin": 918,
      "tte": 919,
      "tere": 920,
      "tions": 921,
      "two": 922,
      "ue": 923,
      "ute": 924,
      "vom": 925,
      "vid": 926,
      "vol": 927,
      "vation": 928,
      "wa": 929,
      "wen": 930,
      "win": 931,
      "wan": 932,
      "wed": 933,
      "wahre": 934,
      "xt": 935,
      "ys": 936,
      "ybr": 937,
      "zie": 938,
      "zel": 939,
      "ßen": 940,
      "äch": 941,
      "ötz": 942,
      "ener": 943,
      "erf": 944,
      "err": 945,
      "erst": 946,
      "chain": 947,
      "chnolog": 948,
      "choices": 949,
      "into": 950,
      "inted": 951,
      "inton": 952,
      "inves": 953,
      "iness": 954,
      "invol": 955,
      "ange": 956,
      "ansp": 957,
      "anischen": 958,
      "ther": 959,
      "ieg": 960,
      "estr": 961,
      "esident": 962,
      "essee": 963,
      "ates": 964,
      "atal": 965,
      "ated": 966,
      "ateri": 967,
      "isten": 968,
      "itr": 969,
      "ited": 970,
      "arm": 971,
      "arn": 972,
      "arbe": 973,
      "arted": 974,
      "also": 975,
      "tom": 976,
      "einige": 977,
      "einfach": 978,
      "recapit": 979,
      "tel": 980,
      "technolog": 981,
      "ands": 982,
      "anden": 983,
      "ander": 984,
      "andere": 985,
      "leicht": 986,
      "letzten": 987,
      "learn": 988,
      "oft": 989,
      "ofit": 990,
      "str": 991,
      "sten": 992,
      "stigen": 993,
      "start": 994,
      "started": 995,
      "iles": 996,
      "betr": 997,
      "better": 998,
      "began": 999,
      "eln": 1000,
      "els": 1001,
      "undlichen": 1002,
      "dern": 1003,
      "derson": 1004,
      "derwä": 1005,
      "gem": 1006,
      "geben": 1007,
      "able": 1008,
      "negat": 1009,
      "next": 1010,
      "ioned": 1011,
      "imag": 1012,
      "immer": 1013,
      "import": 1014,
      "ical": 1015,
      "icity": 1016,
      "icip": 1017,
      "urger": 1018,
      "achten": 1019,
      "ide": 1020,
      "iden": 1021,
      "schie": 1022,
      "schlie": 1023,
      "schrie": 1024,
      "sets": 1025,
      "entert": 1026,
      "istor": 1027,
      "genau": 1028,
      "genden": 1029,
      "weil": 1030,
      "hatte": 1031,
      "degre": 1032,
      "ierung": 1033,
      "soll": 1034,
      "verstehen": 1035,
      "version": 1036,
      "hear": 1037,
      "utzen": 1038,
      "frien": 1039,
      "fore": 1040,
      "kette": 1041,
      "term": 1042,
      "zepr": 1043,
      "zeige": 1044,
      "zeug": 1045,
      "zeigt": 1046,
      "mitten": 1047,
      "olle": 1048,
      "sah": 1049,
      "sagte": 1050,
      "viele": 1051,
      "warming": 1052,
      "ortunity": 1053,
      "ctions": 1054,
      "short": 1055,
      "should": 1056,
      "wife": 1057,
      "contin": 1058,
      "printed": 1059,
      "profit": 1060,
      "ulation": 1061,
      "umer": 1062,
      "uchen": 1063,
      "ungün": 1064,
      "means": 1065,
      "This": 1066,
      "life": 1067,
      "ments": 1068,
      "mentioned": 1069,
      "Leben": 1070,
      "Letter": 1071,
      "Leban": 1072,
      "Leute": 1073,
      "grate": 1074,
      "könnte": 1075,
      "made": 1076,
      "agement": 1077,
      "cars": 1078,
      "opened": 1079,
      "options": 1080,
      "others": 1081,
      "plötz": 1082,
      "unsere": 1083,
      "vielen": 1084,
      "vielleicht": 1085,
      "Erderwä": 1086,
      "President": 1087,
      "Redu": 1088,
      "efficiency": 1089,
      "jetzt": 1090,
      "mot": 1091,
      "nichts": 1092,
      "questr": 1093,
      "David": 1094,
      "dafür": 1095,
      "drig": 1096,
      "driving": 1097,
      "extre": 1098,
      "where": 1099,
      "icken": 1100,
      "Eine": 1101,
      "Einzel": 1102,
      "Efficiency": 1103,
      "Ford": 1104,
      "Force": 1105,
      "Mai": 1106,
      "Major": 1107,
      "States": 1108,
      "Thema": 1109,
      "Unter": 1110,
      "United": 1111,
      "days": 1112,
      "green": 1113,
      "möglich": 1114,
      "wrong": 1115,
      "written": 1116,
      "zurück": 1117,
      "reduce": 1118,
      "reduzieren": 1119,
      "netten": 1120,
      "slide": 1121,
      "climatecrisis": 1122,
      "Teil": 1123,
      "booth": 1124,
      "easy": 1125,
      "hantom": 1126,
      "kommt": 1127,
      "kommen": 1128,
      "sondern": 1129,
      "treffen": 1130,
      "vorgestern": 1131,
      "things": 1132,
      "offsets": 1133,
      "nologie": 1134,
      "proje": 1135,
      "prochen": 1136,
      "calculator": 1137,
      "erzählte": 1138,
      "Anderson": 1139,
      "Cars": 1140,
      "Flug": 1141,
      "Frau": 1142,
      "Gewin": 1143,
      "Grad": 1144,
      "Klimak": 1145,
      "Montere": 1146,
      "Nacht": 1147,
      "Particip": 1148,
      "Sequestr": 1149,
      "Strom": 1150,
      "USA": 1151,
      "Viele": 1152,
      "buy": 1153,
      "billige": 1154,
      "darüber": 1155,
      "etwas": 1156,
      "freundlichen": 1157,
      "gesprochen": 1158,
      "harsh": 1159,
      "kennen": 1160,
      "niedrig": 1161,
      "prett": 1162,
      "running": 1163,
      "wollte": 1164,
      "äsident": 1165,
      "looked": 1166,
      "decision": 1167,
      "consumer": 1168,
      "plane": 1169,
      "Ausgleich": 1170,
      "direkt": 1171,
      "Productions": 1172,
      "slideshow": 1173,
      "Energien": 1174,
      "Familienrestaurantkette": 1175,
      "elaborate": 1176,
      "238": 1177,
      "Atlant": 1178,
      "Azor": 1179,
      "Abend": 1180,
      "America": 1181,
      "Bilder": 1182,
      "CCS": 1183,
      "Clinton": 1184,
      "Doerr": 1185,
      "Film": 1186,
      "John": 1187,
      "Leno": 1188,
      "Lagos": 1189,
      "Rechner": 1190,
      "Taurus": 1191,
      "Tennessee": 1192,
      "Technologie": 1193,
      "Umwelt": 1194,
      "Vizepr": 1195,
      "Vinod": 1196,
      "Wahl": 1197,
      "across": 1198,
      "business": 1199,
      "current": 1200,
      "ctricity": 1201,
      "down": 1202,
      "electricity": 1203,
      "faktor": 1204,
      "gfristig": 1205,
      "last": 1206,
      "little": 1207,
      "mperat": 1208,
      "opportunity": 1209,
      "purchas": 1210,
      "richten": 1211,
      "wanted": 1212,
      "ybrid": 1213,
      "ziehen": 1214,
      "energy": 1215,
      "invested": 1216,
      "ansport": 1217,
      "aterial": 1218,
      "einfacher": 1219,
      "images": 1220,
      "important": 1221,
      "entertain": 1222,
      "degrees": 1223,
      "friend": 1224,
      "ungünstigen": 1225,
      "Letterman": 1226,
      "Lebanon": 1227,
      "plötzlich": 1228,
      "Erderwärmung": 1229,
      "extremely": 1230,
      "Einzelne": 1231,
      "Majora": 1232,
      "Klimakrise": 1233,
      "Monterey": 1234,
      "Participant": 1235,
      "pretty": 1236,
      "Vizepräsident": 1237,
      "\"'": 1238,
      "\".": 1239,
      ",\"": 1240,
      "31": 1241,
      "39": 1242,
      "Ab": 1243,
      "Ag": 1244,
      "Am": 1245,
      "Ar": 1246,
      "Auch": 1247,
      "Abst": 1248,
      "Bo": 1249,
      "Br": 1250,
      "Bu": 1251,
      "Bü": 1252,
      "Bes": 1253,
      "Bis": 1254,
      "Bor": 1255,
      "Brie": 1256,
      "Burger": 1257,
      "CE": 1258,
      "Cap": 1259,
      "Dr": 1260,
      "Dar": 1261,
      "Dre": 1262,
      "Dann": 1263,
      "Durch": 1264,
      "End": 1265,
      "Every": 1266,
      "Ehre": 1267,
      "Fre": 1268,
      "Fig": 1269,
      "Fir": 1270,
      "Fol": 1271,
      "Fill": 1272,
      "Für": 1273,
      "Farm": 1274,
      "G5": 1275,
      "Gl": 1276,
      "Gen": 1277,
      "He": 1278,
      "Hin": 1279,
      "Hou": 1280,
      "Hil": 1281,
      "Haben": 1282,
      "Hause": 1283,
      "Histor": 1284,
      "Hybrid": 1285,
      "Ihr": 1286,
      "Isl": 1287,
      "Isol": 1288,
      "Ja": 1289,
      "Je": 1290,
      "Just": 1291,
      "Jahr": 1292,
      "Jahre": 1293,
      "Ko": 1294,
      "Kr": 1295,
      "Kon": 1296,
      "Kun": 1297,
      "Kom": 1298,
      "Kur": 1299,
      "Kauf": 1300,
      "Kost": 1301,
      "Kell": 1302,
      "Kaufen": 1303,
      "Kapit": 1304,
      "Keil": 1305,
      "Katal": 1306,
      "Kolle": 1307,
      "Lu": 1308,
      "Lan": 1309,
      "Low": 1310,
      "Licht": 1311,
      "Lage": 1312,
      "Listen": 1313,
      "Mu": 1314,
      "My": 1315,
      "Mö": 1316,
      "Mit": 1317,
      "Mas": 1318,
      "Meine": 1319,
      "Most": 1320,
      "Mitten": 1321,
      "Meil": 1322,
      "Material": 1323,
      "Nor": 1324,
      "Nex": 1325,
      "Nutzen": 1326,
      "OK": 1327,
      "One": 1328,
      "Over": 1329,
      "Offen": 1330,
      "Other": 1331,
      "Pa": 1332,
      "Put": 1333,
      "Pap": 1334,
      "Pomm": 1335,
      "Pick": 1336,
      "Phantom": 1337,
      "Re": 1338,
      "Ren": 1339,
      "Rest": 1340,
      "Roll": 1341,
      "Rück": 1342,
      "So": 1343,
      "She": 1344,
      "Stim": 1345,
      "Slog": 1346,
      "Spa": 1347,
      "Suchen": 1348,
      "Taus": 1349,
      "Tag": 1350,
      "Tage": 1351,
      "Tür": 1352,
      "Tagen": 1353,
      "Up": 1354,
      "Use": 1355,
      "Vor": 1356,
      "Vort": 1357,
      "Wh": 1358,
      "Wit": 1359,
      "Wand": 1360,
      "What": 1361,
      "Wenn": 1362,
      "Yes": 1363,
      "Ze": 1364,
      "Zu": 1365,
      "Zun": 1366,
      "ac": 1367,
      "ail": 1368,
      "aff": 1369,
      "aver": 1370,
      "ake": 1371,
      "ace": 1372,
      "act": 1373,
      "ahren": 1374,
      "away": 1375,
      "bä": 1376,
      "bis": 1377,
      "bit": 1378,
      "bun": 1379,
      "bing": 1380,
      "bere": 1381,
      "bare": 1382,
      "bad": 1383,
      "blow": 1384,
      "biles": 1385,
      "burger": 1386,
      "cc": 1387,
      "cl": 1388,
      "cer": 1389,
      "cor": 1390,
      "cit": 1391,
      "cam": 1392,
      "cus": 1393,
      "cien": 1394,
      "cted": 1395,
      "cern": 1396,
      "city": 1397,
      "cade": 1398,
      "colog": 1399,
      "catal": 1400,
      "colle": 1401,
      "dy": 1402,
      "din": 1403,
      "dan": 1404,
      "ding": 1405,
      "dge": 1406,
      "dur": 1407,
      "dten": 1408,
      "dden": 1409,
      "done": 1410,
      "dah": 1411,
      "dank": 1412,
      "dür": 1413,
      "dated": 1414,
      "eg": 1415,
      "ew": 1416,
      "eat": 1417,
      "ear": 1418,
      "eig": 1419,
      "each": 1420,
      "eten": 1421,
      "ever": 1422,
      "eben": 1423,
      "ekt": 1424,
      "eigen": 1425,
      "eight": 1426,
      "ecolog": 1427,
      "fä": 1428,
      "fie": 1429,
      "fal": 1430,
      "fel": 1431,
      "flo": 1432,
      "fhe": 1433,
      "fol": 1434,
      "five": 1435,
      "flog": 1436,
      "four": 1437,
      "fell": 1438,
      "flie": 1439,
      "fahr": 1440,
      "feld": 1441,
      "farm": 1442,
      "fanden": 1443,
      "gar": 1444,
      "gil": 1445,
      "gere": 1446,
      "gann": 1447,
      "gut": 1448,
      "ght": 1449,
      "gesch": 1450,
      "given": 1451,
      "gib": 1452,
      "glau": 1453,
      "gfä": 1454,
      "hä": 1455,
      "hon": 1456,
      "his": 1457,
      "hit": 1458,
      "has": 1459,
      "hau": 1460,
      "hel": 1461,
      "hab": 1462,
      "hmen": 1463,
      "histor": 1464,
      "hybrid": 1465,
      "ire": 1466,
      "ile": 1467,
      "iere": 1468,
      "ihr": 1469,
      "ihe": 1470,
      "ibut": 1471,
      "ihre": 1472,
      "ihnen": 1473,
      "ja": 1474,
      "ju": 1475,
      "jen": 1476,
      "kin": 1477,
      "kon": 1478,
      "kor": 1479,
      "kte": 1480,
      "king": 1481,
      "kten": 1482,
      "keine": 1483,
      "kol": 1484,
      "kill": 1485,
      "kenn": 1486,
      "kungen": 1487,
      "kür": 1488,
      "kely": 1489,
      "kidd": 1490,
      "kolog": 1491,
      "kanischen": 1492,
      "kzeug": 1493,
      "les": 1494,
      "lat": 1495,
      "lten": 1496,
      "lage": 1497,
      "less": 1498,
      "light": 1499,
      "laufen": 1500,
      "läs": 1501,
      "lachten": 1502,
      "mü": 1503,
      "min": 1504,
      "mon": 1505,
      "mein": 1506,
      "may": 1507,
      "mier": 1508,
      "mber": 1509,
      "main": 1510,
      "money": 1511,
      "munity": 1512,
      "manden": 1513,
      "mstart": 1514,
      "miles": 1515,
      "meln": 1516,
      "material": 1517,
      "nf": 1518,
      "ns": 1519,
      "nun": 1520,
      "nung": 1521,
      "nomm": 1522,
      "nigeri": 1523,
      "näch": 1524,
      "ngenden": 1525,
      "nutzen": 1526,
      "nfaktor": 1527,
      "ob": 1528,
      "ox": 1529,
      "oes": 1530,
      "oun": 1531,
      "ote": 1532,
      "ogen": 1533,
      "oice": 1534,
      "ots": 1535,
      "ohne": 1536,
      "oßen": 1537,
      "pu": 1538,
      "pie": 1539,
      "pun": 1540,
      "pas": 1541,
      "pic": 1542,
      "put": 1543,
      "pain": 1544,
      "pap": 1545,
      "pers": 1546,
      "pack": 1547,
      "poll": 1548,
      "pend": 1549,
      "pens": 1550,
      "phantom": 1551,
      "ror": 1552,
      "rou": 1553,
      "rein": 1554,
      "rate": 1555,
      "richt": 1556,
      "rap": 1557,
      "rieren": 1558,
      "richtig": 1559,
      "range": 1560,
      "rail": 1561,
      "sat": 1562,
      "sto": 1563,
      "seine": 1564,
      "sier": 1565,
      "sicht": 1566,
      "spr": 1567,
      "such": 1568,
      "sust": 1569,
      "send": 1570,
      "sider": 1571,
      "soft": 1572,
      "sulation": 1573,
      "scien": 1574,
      "tw": 1575,
      "tar": 1576,
      "til": 1577,
      "tur": 1578,
      "twe": 1579,
      "tze": 1580,
      "tank": 1581,
      "ture": 1582,
      "tnis": 1583,
      "tide": 1584,
      "take": 1585,
      "uen": 1586,
      "uit": 1587,
      "uing": 1588,
      "uel": 1589,
      "ude": 1590,
      "uhe": 1591,
      "uck": 1592,
      "uct": 1593,
      "uern": 1594,
      "vis": 1595,
      "ving": 1596,
      "vir": 1597,
      "ved": 1598,
      "vier": 1599,
      "vice": 1600,
      "voll": 1601,
      "vened": 1602,
      "vations": 1603,
      "vices": 1604,
      "vels": 1605,
      "voice": 1606,
      "wö": 1607,
      "wes": 1608,
      "wun": 1609,
      "wof": 1610,
      "wach": 1611,
      "whe": 1612,
      "well": 1613,
      "wick": 1614,
      "wahr": 1615,
      "wischen": 1616,
      "would": 1617,
      "wachte": 1618,
      "yst": 1619,
      "yest": 1620,
      "yell": 1621,
      "yet": 1622,
      "year": 1623,
      "zt": 1624,
      "zz": 1625,
      "zent": 1626,
      "zwe": 1627,
      "zwar": 1628,
      "zah": 1629,
      "zogen": 1630,
      "zwischen": 1631,
      "ßlich": 1632,
      "ßeren": 1633,
      "äter": 1634,
      "ärt": 1635,
      "ädten": 1636,
      "öst": 1637,
      "ökolog": 1638,
      "ößeren": 1639,
      "üft": 1640,
      "enable": 1641,
      "enfaktor": 1642,
      "envir": 1643,
      "ered": 1644,
      "erday": 1645,
      "erhin": 1646,
      "erkl": 1647,
      "erwer": 1648,
      "eröff": 1649,
      "erbare": 1650,
      "cher": 1651,
      "chit": 1652,
      "chten": 1653,
      "chnen": 1654,
      "chite": 1655,
      "change": 1656,
      "chmü": 1657,
      "chnung": 1658,
      "inno": 1659,
      "inform": 1660,
      "anst": 1661,
      "antr": 1662,
      "another": 1663,
      "anwen": 1664,
      "anpack": 1665,
      "thou": 1666,
      "thank": 1667,
      "those": 1668,
      "throu": 1669,
      "onne": 1670,
      "onment": 1671,
      "ieb": 1672,
      "iete": 1673,
      "esh": 1674,
      "esle": 1675,
      "atul": 1676,
      "ativen": 1677,
      "isieren": 1678,
      "isiere": 1679,
      "order": 1680,
      "orcade": 1681,
      "iter": 1682,
      "itur": 1683,
      "itigen": 1684,
      "iters": 1685,
      "itionen": 1686,
      "itik": 1687,
      "unser": 1688,
      "until": 1689,
      "ichen": 1690,
      "asle": 1691,
      "aren": 1692,
      "ared": 1693,
      "arter": 1694,
      "arcan": 1695,
      "ards": 1696,
      "archit": 1697,
      "their": 1698,
      "alen": 1699,
      "alösungen": 1700,
      "auer": 1701,
      "auto": 1702,
      "auben": 1703,
      "auchen": 1704,
      "told": 1705,
      "total": 1706,
      "took": 1707,
      "topic": 1708,
      "eins": 1709,
      "einlich": 1710,
      "einigen": 1711,
      "einkaufen": 1712,
      "ree": 1713,
      "rear": 1714,
      "reden": 1715,
      "reme": 1716,
      "refu": 1717,
      "rechen": 1718,
      "report": 1719,
      "recor": 1720,
      "rekor": 1721,
      "remain": 1722,
      "retur": 1723,
      "rechten": 1724,
      "tete": 1725,
      "tely": 1726,
      "tegrate": 1727,
      "temperat": 1728,
      "anding": 1729,
      "andgut": 1730,
      "andards": 1731,
      "lead": 1732,
      "lebr": 1733,
      "letter": 1734,
      "lechte": 1735,
      "left": 1736,
      "levels": 1737,
      "iger": 1738,
      "igte": 1739,
      "offen": 1740,
      "stage": 1741,
      "stands": 1742,
      "staff": 1743,
      "standards": 1744,
      "ilding": 1745,
      "bege": 1746,
      "beim": 1747,
      "beur": 1748,
      "beach": 1749,
      "bekann": 1750,
      "bekl": 1751,
      "bekam": 1752,
      "bevor": 1753,
      "beteil": 1754,
      "become": 1755,
      "begin": 1756,
      "beiden": 1757,
      "before": 1758,
      "begann": 1759,
      "betwe": 1760,
      "bezah": 1761,
      "elte": 1762,
      "eling": 1763,
      "elsch": 1764,
      "unds": 1765,
      "unden": 1766,
      "under": 1767,
      "undlage": 1768,
      "derze": 1769,
      "derhol": 1770,
      "derfreundlichen": 1771,
      "getr": 1772,
      "gegen": 1773,
      "gehe": 1774,
      "gehen": 1775,
      "gedr": 1776,
      "gemach": 1777,
      "gehö": 1778,
      "gegeben": 1779,
      "gezeigt": 1780,
      "geflo": 1781,
      "gekür": 1782,
      "gewö": 1783,
      "gezogen": 1784,
      "ably": 1785,
      "ables": 1786,
      "abgekür": 1787,
      "nete": 1788,
      "need": 1789,
      "neben": 1790,
      "nect": 1791,
      "nehmen": 1792,
      "imal": 1793,
      "imnis": 1794,
      "icant": 1795,
      "uren": 1796,
      "urrekor": 1797,
      "acht": 1798,
      "idly": 1799,
      "schen": 1800,
      "schau": 1801,
      "schut": 1802,
      "schön": 1803,
      "schmer": 1804,
      "schwer": 1805,
      "scheinlich": 1806,
      "schlechte": 1807,
      "schelsch": 1808,
      "vement": 1809,
      "love": 1810,
      "lohnen": 1811,
      "set": 1812,
      "setz": 1813,
      "sehen": 1814,
      "setzten": 1815,
      "happ": 1816,
      "hafen": 1817,
      "entlich": 1818,
      "entlichen": 1819,
      "entwick": 1820,
      "enturen": 1821,
      "entlohnen": 1822,
      "traf": 1823,
      "transport": 1824,
      "tribut": 1825,
      "diese": 1826,
      "zusam": 1827,
      "zuler": 1828,
      "istung": 1829,
      "istert": 1830,
      "weise": 1831,
      "wegem": 1832,
      "hatten": 1833,
      "wirkungen": 1834,
      "antwor": 1835,
      "aufgr": 1836,
      "aufgere": 1837,
      "amort": 1838,
      "ameri": 1839,
      "ammier": 1840,
      "det": 1841,
      "deal": 1842,
      "deut": 1843,
      "defle": 1844,
      "ffe": 1845,
      "fferen": 1846,
      "ierten": 1847,
      "soil": 1848,
      "sounds": 1849,
      "usual": 1850,
      "verme": 1851,
      "verbr": 1852,
      "verschie": 1853,
      "annual": 1854,
      "announ": 1855,
      "heiten": 1856,
      "liches": 1857,
      "ution": 1858,
      "utions": 1859,
      "denkt": 1860,
      "fries": 1861,
      "frische": 1862,
      "fruit": 1863,
      "fresh": 1864,
      "forman": 1865,
      "former": 1866,
      "good": 1867,
      "cked": 1868,
      "kehr": 1869,
      "keiten": 1870,
      "novation": 1871,
      "coming": 1872,
      "compl": 1873,
      "comple": 1874,
      "comments": 1875,
      "commot": 1876,
      "combing": 1877,
      "community": 1878,
      "compens": 1879,
      "manag": 1880,
      "management": 1881,
      "zeigen": 1882,
      "zeichen": 1883,
      "zeigte": 1884,
      "ausmach": 1885,
      "auskennen": 1886,
      "ausziehen": 1887,
      "ausgezogen": 1888,
      "füge": 1889,
      "fünf": 1890,
      "mittel": 1891,
      "bens": 1892,
      "benen": 1893,
      "cept": 1894,
      "celebr": 1895,
      "safe": 1896,
      "saßen": 1897,
      "view": 1898,
      "ware": 1899,
      "warten": 1900,
      "cting": 1901,
      "ction": 1902,
      "ctly": 1903,
      "shell": 1904,
      "shoes": 1905,
      "shared": 1906,
      "wire": 1907,
      "überpr": 1908,
      "überall": 1909,
      "überhau": 1910,
      "illust": 1911,
      "Tipps": 1912,
      "conser": 1913,
      "conferen": 1914,
      "constr": 1915,
      "concern": 1916,
      "convened": 1917,
      "connect": 1918,
      "contribut": 1919,
      "ktion": 1920,
      "ktur": 1921,
      "series": 1922,
      "services": 1923,
      "ulate": 1924,
      "ultim": 1925,
      "ulieren": 1926,
      "umwelt": 1927,
      "agt": 1928,
      "ager": 1929,
      "again": 1930,
      "ague": 1931,
      "agenturen": 1932,
      "ainably": 1933,
      "meisten": 1934,
      "spect": 1935,
      "spieg": 1936,
      "später": 1937,
      "sparen": 1938,
      "sprechen": 1939,
      "önlichen": 1940,
      "neuen": 1941,
      "neues": 1942,
      "neuerbare": 1943,
      "Then": 1944,
      "Thank": 1945,
      "These": 1946,
      "Those": 1947,
      "Three": 1948,
      "add": 1949,
      "addr": 1950,
      "advice": 1951,
      "live": 1952,
      "lifel": 1953,
      "likely": 1954,
      "mentare": 1955,
      "nachdem": 1956,
      "nachhalt": 1957,
      "nachrichten": 1958,
      "sichere": 1959,
      "self": 1960,
      "allen": 1961,
      "Lehren": 1962,
      "grow": 1963,
      "grün": 1964,
      "großen": 1965,
      "größeren": 1966,
      "gratul": 1967,
      "grammier": 1968,
      "limb": 1969,
      "making": 1970,
      "nerin": 1971,
      "nertime": 1972,
      "ennsto": 1973,
      "Bei": 1974,
      "Bevor": 1975,
      "Become": 1976,
      "Begin": 1977,
      "Beitr": 1978,
      "Before": 1979,
      "Beziehen": 1980,
      "Weg": 1981,
      "Weiß": 1982,
      "Weise": 1983,
      "myself": 1984,
      "plus": 1985,
      "place": 1986,
      "getan": 1987,
      "yourselves": 1988,
      "truly": 1989,
      "Aufhe": 1990,
      "Aussagen": 1991,
      "Ausfahr": 1992,
      "Ausschau": 1993,
      "Auswirkungen": 1994,
      "Erst": 1995,
      "Erfol": 1996,
      "Erkenn": 1997,
      "Erneuerbare": 1998,
      "Inform": 1999,
      "Insulation": 2000,
      "Integrate": 2001,
      "Innovation": 2002,
      "Wirklich": 2003,
      "effizienz": 2004,
      "effekt": 2005,
      "fuhr": 2006,
      "fuels": 2007,
      "jeder": 2008,
      "jemanden": 2009,
      "jektion": 2010,
      "most": 2011,
      "mobiles": 2012,
      "quick": 2013,
      "quite": 2014,
      "quire": 2015,
      "quote": 2016,
      "quarter": 2017,
      "somebo": 2018,
      "ankomm": 2019,
      "essen": 2020,
      "esses": 2021,
      "Davon": 2022,
      "Diese": 2023,
      "Diejen": 2024,
      "brauchen": 2025,
      "branding": 2026,
      "dazuler": 2027,
      "door": 2028,
      "exit": 2029,
      "expend": 2030,
      "except": 2031,
      "mirror": 2032,
      "meinem": 2033,
      "since": 2034,
      "sincer": 2035,
      "white": 2036,
      "ernst": 2037,
      "chef": 2038,
      "checked": 2039,
      "eller": 2040,
      "news": 2041,
      "lowest": 2042,
      "lowered": 2043,
      "Autokol": 2044,
      "Former": 2045,
      "Make": 2046,
      "Story": 2047,
      "Stück": 2048,
      "Städten": 2049,
      "Ungewö": 2050,
      "aktual": 2051,
      "aktiven": 2052,
      "aktuel": 2053,
      "diox": 2054,
      "differen": 2055,
      "deshal": 2056,
      "ecture": 2057,
      "great": 2058,
      "hnliches": 2059,
      "hinzu": 2060,
      "hinaus": 2061,
      "halten": 2062,
      "mache": 2063,
      "machte": 2064,
      "machten": 2065,
      "steuern": 2066,
      "woke": 2067,
      "writers": 2068,
      "worden": 2069,
      "ückwun": 2070,
      "aucher": 2071,
      "reduced": 2072,
      "Programmier": 2073,
      "Projektion": 2074,
      "Dias": 2075,
      "Teach": 2076,
      "Temperat": 2077,
      "boots": 2078,
      "cisely": 2079,
      "east": 2080,
      "easier": 2081,
      "everything": 2082,
      "gerufen": 2083,
      "gerade": 2084,
      "ganz": 2085,
      "ganze": 2086,
      "gingen": 2087,
      "hanging": 2088,
      "hanies": 2089,
      "jede": 2090,
      "kleinen": 2091,
      "klicken": 2092,
      "kurze": 2093,
      "kamen": 2094,
      "ltig": 2095,
      "liegt": 2096,
      "nights": 2097,
      "performan": 2098,
      "perspect": 2099,
      "rennen": 2100,
      "rengen": 2101,
      "rented": 2102,
      "riebenen": 2103,
      "same": 2104,
      "samer": 2105,
      "sammeln": 2106,
      "update": 2107,
      "updated": 2108,
      "upset": 2109,
      "weltweit": 2110,
      "themselves": 2111,
      "teilen": 2112,
      "teilweise": 2113,
      "shows": 2114,
      "Ihrem": 2115,
      "neutrales": 2116,
      "talked": 2117,
      "January": 2118,
      "Januarys": 2119,
      "calculate": 2120,
      "calculation": 2121,
      "globale": 2122,
      "erzähle": 2123,
      "erzählt": 2124,
      "Anteil": 2125,
      "Carbon": 2126,
      "Exit": 2127,
      "Flut": 2128,
      "Frage": 2129,
      "Gebä": 2130,
      "Grundlage": 2131,
      "Klimalösungen": 2132,
      "Many": 2133,
      "Management": 2134,
      "Manager": 2135,
      "Monat": 2136,
      "Nachrichten": 2137,
      "Partner": 2138,
      "Sehen": 2139,
      "Strandgut": 2140,
      "Vielen": 2141,
      "airport": 2142,
      "airplane": 2143,
      "building": 2144,
      "basis": 2145,
      "based": 2146,
      "bastel": 2147,
      "barer": 2148,
      "barungen": 2149,
      "billiges": 2150,
      "capital": 2151,
      "daran": 2152,
      "durchgehen": 2153,
      "durchklicken": 2154,
      "freuen": 2155,
      "gesagt": 2156,
      "glichkeiten": 2157,
      "hard": 2158,
      "ificant": 2159,
      "ika": 2160,
      "iphanies": 2161,
      "lang": 2162,
      "langen": 2163,
      "langfristig": 2164,
      "mengerufen": 2165,
      "path": 2166,
      "paid": 2167,
      "precisely": 2168,
      "partly": 2169,
      "partner": 2170,
      "runway": 2171,
      "wäre": 2172,
      "werde": 2173,
      "wollen": 2174,
      "öffnete": 2175,
      "öffentlichen": 2176,
      "ensure": 2177,
      "investieren": 2178,
      "investments": 2179,
      "investierten": 2180,
      "thinking": 2181,
      "ationsökolog": 2182,
      "unterhalt": 2183,
      "unternomm": 2184,
      "allem": 2185,
      "telling": 2186,
      "tellung": 2187,
      "leichter": 2188,
      "schnitt": 2189,
      "schnapp": 2190,
      "schneller": 2191,
      "looking": 2192,
      "weitere": 2193,
      "weiterhin": 2194,
      "weißen": 2195,
      "decisions": 2196,
      "solcher": 2197,
      "solutions": 2198,
      "formulieren": 2199,
      "führenden": 2200,
      "consider": 2201,
      "Ausgaben": 2202,
      "Investieren": 2203,
      "Investitionen": 2204,
      "effective": 2205,
      "directly": 2206,
      "haltung": 2207,
      "Produkten": 2208,
      "heraushol": 2209,
      "herausgegeben": 2210,
      "kurzfristigen": 2211,
      "kurzfristige": 2212,
      "kurzfristiges": 2213,
      "Energie": 2214,
      "besseren": 2215,
      "besseres": 2216,
      "position": 2217,
      "positiv": 2218,
      "positive": 2219,
      "elaborated": 2220,
      "Entscheiden": 2221,
      "Entscheidung": 2222,
      "Entscheidungen": 2223,
      "Africa": 2224,
      "Afrika": 2225,
      "Baudesign": 2226,
      "Bauwes": 2227,
      "Bereich": 2228,
      "Berechnung": 2229,
      "Consider": 2230,
      "Congratul": 2231,
      "Ganz": 2232,
      "Ganzen": 2233,
      "Menge": 2234,
      "Menschen": 2235,
      "Not": 2236,
      "Noch": 2237,
      "Schicken": 2238,
      "Schuhe": 2239,
      "Transport": 2240,
      "Trauben": 2241,
      "Versetz": 2242,
      "Verkehr": 2243,
      "Version": 2244,
      "Versuchen": 2245,
      "Werden": 2246,
      "Werkzeug": 2247,
      "Wiederhol": 2248,
      "after": 2249,
      "epiphanies": 2250,
      "found": 2251,
      "focus": 2252,
      "find": 2253,
      "findet": 2254,
      "flew": 2255,
      "full": 2256,
      "ferenz": 2257,
      "fossil": 2258,
      "fossile": 2259,
      "ghed": 2260,
      "hören": 2261,
      "hielt": 2262,
      "hielten": 2263,
      "handwritten": 2264,
      "handgesch": 2265,
      "ible": 2266,
      "lenken": 2267,
      "lernen": 2268,
      "laughed": 2269,
      "landed": 2270,
      "landeten": 2271,
      "muss": 2272,
      "musste": 2273,
      "named": 2274,
      "namens": 2275,
      "nahm": 2276,
      "nahme": 2277,
      "succ": 2278,
      "sudden": 2279,
      "senkte": 2280,
      "sorgen": 2281,
      "sorgfä": 2282,
      "seinheiten": 2283,
      "significant": 2284,
      "waitr": 2285,
      "waving": 2286,
      "weniger": 2287,
      "wedge": 2288,
      "wedelte": 2289,
      "ysator": 2290,
      "ächst": 2291,
      "erfahren": 2292,
      "erfunden": 2293,
      "involved": 2294,
      "involvement": 2295,
      "arbeiten": 2296,
      "arbeiter": 2297,
      "recapitulation": 2298,
      "recapitulate": 2299,
      "technology": 2300,
      "technological": 2301,
      "anderer": 2302,
      "anderes": 2303,
      "strain": 2304,
      "betrat": 2305,
      "betrachten": 2306,
      "gemiete": 2307,
      "negativ": 2308,
      "negative": 2309,
      "schief": 2310,
      "schlief": 2311,
      "schließlich": 2312,
      "schrieb": 2313,
      "sollte": 2314,
      "sollten": 2315,
      "heard": 2316,
      "continue": 2317,
      "continuing": 2318,
      "profitable": 2319,
      "grateful": 2320,
      "unserem": 2321,
      "Reduce": 2322,
      "Reduzieren": 2323,
      "motorcade": 2324,
      "Unternehmen": 2325,
      "Unterhaltung": 2326,
      "mögliche": 2327,
      "möglichst": 2328,
      "zurückkommen": 2329,
      "Teilnahme": 2330,
      "projected": 2331,
      "projection": 2332,
      "Flugzeug": 2333,
      "Flughafen": 2334,
      "Gewinnen": 2335,
      "Gewinnfaktor": 2336,
      "Sequestration": 2337,
      "Sequestrierung": 2338,
      "niedrigsten": 2339,
      "Ausgleichseinheiten": 2340,
      "Atlantic": 2341,
      "Atlantik": 2342,
      "Azoren": 2343,
      "Azores": 2344,
      "Abendessen": 2345,
      "Filmversion": 2346,
      "Technologieeffizienz": 2347,
      "Umweltschut": 2348,
      "Umweltnachrichten": 2349,
      "purchase": 2350,
      "purchases": 2351,
      "entertaining": 2352,
      "entertainment": 2353,
      "friendly": 2354,
      "Abgemach": 2355,
      "Again": 2356,
      "Archite": 2357,
      "Abstieg": 2358,
      "Boden": 2359,
      "Brennsto": 2360,
      "Buy": 2361,
      "Bühne": 2362,
      "Bestellung": 2363,
      "Bord": 2364,
      "Brief": 2365,
      "CEO": 2366,
      "Capture": 2367,
      "Driving": 2368,
      "Darüber": 2369,
      "Drei": 2370,
      "Durchschnitt": 2371,
      "Endverbr": 2372,
      "Freund": 2373,
      "Figure": 2374,
      "First": 2375,
      "Folgenden": 2376,
      "Fillmstart": 2377,
      "Glückwun": 2378,
      "Genauer": 2379,
      "Hinter": 2380,
      "House": 2381,
      "Hilfe": 2382,
      "Historical": 2383,
      "Hybridantr": 2384,
      "Islands": 2385,
      "Isolierung": 2386,
      "Jetzt": 2387,
      "Jahresle": 2388,
      "Kochmü": 2389,
      "Kritik": 2390,
      "Konferenz": 2391,
      "Kunst": 2392,
      "Kommentare": 2393,
      "Kurz": 2394,
      "Kostenfaktor": 2395,
      "Kellnerin": 2396,
      "Kapital": 2397,
      "Katalysator": 2398,
      "Kollegen": 2399,
      "Luft": 2400,
      "Langfristig": 2401,
      "Muschelsch": 2402,
      "Möglichkeiten": 2403,
      "Mitarbeiter": 2404,
      "Masse": 2405,
      "Meilen": 2406,
      "Normen": 2407,
      "Next": 2408,
      "Offenbarungen": 2409,
      "Paar": 2410,
      "Papier": 2411,
      "Pommes": 2412,
      "Phantomschmer": 2413,
      "Reihe": 2414,
      "Renew": 2415,
      "Rollfeld": 2416,
      "Rückspieg": 2417,
      "Soon": 2418,
      "Stimme": 2419,
      "Slogans": 2420,
      "Spaß": 2421,
      "Tausend": 2422,
      "Update": 2423,
      "Vorzeichen": 2424,
      "Vortag": 2425,
      "White": 2426,
      "Witze": 2427,
      "Wandel": 2428,
      "Zeit": 2429,
      "Zunächst": 2430,
      "acquire": 2431,
      "average": 2432,
      "active": 2433,
      "bunch": 2434,
      "berechnen": 2435,
      "blown": 2436,
      "click": 2437,
      "cities": 2438,
      "came": 2439,
      "catalyst": 2440,
      "colleague": 2441,
      "dinnertime": 2442,
      "danke": 2443,
      "during": 2444,
      "daher": 2445,
      "dankbar": 2446,
      "dürfen": 2447,
      "egal": 2448,
      "eigentlich": 2449,
      "ebenso": 2450,
      "eigenen": 2451,
      "ecology": 2452,
      "fiel": 2453,
      "falsch": 2454,
      "fliegen": 2455,
      "gilt": 2456,
      "gibt": 2457,
      "glauben": 2458,
      "hängenden": 2459,
      "honor": 2460,
      "hasn": 2461,
      "help": 2462,
      "habit": 2463,
      "historische": 2464,
      "ihrer": 2465,
      "judge": 2466,
      "kind": 2467,
      "konzent": 2468,
      "killer": 2469,
      "kidding": 2470,
      "later": 2471,
      "lässt": 2472,
      "minus": 2473,
      "month": 2474,
      "maybe": 2475,
      "mbered": 2476,
      "nigerianischen": 2477,
      "nächsten": 2478,
      "ohnehin": 2479,
      "puzz": 2480,
      "piece": 2481,
      "punkt": 2482,
      "passier": 2483,
      "paper": 2484,
      "persönlichen": 2485,
      "pollution": 2486,
      "richtigen": 2487,
      "rapidly": 2488,
      "sichtbarer": 2489,
      "sprach": 2490,
      "suchten": 2491,
      "sustainably": 2492,
      "sending": 2493,
      "software": 2494,
      "science": 2495,
      "twice": 2496,
      "target": 2497,
      "tanken": 2498,
      "uckt": 2499,
      "visible": 2500,
      "vollen": 2501,
      "wofür": 2502,
      "wachsen": 2503,
      "whether": 2504,
      "wahrscheinlich": 2505,
      "yesterday": 2506,
      "yelling": 2507,
      "years": 2508,
      "zweimal": 2509,
      "östlich": 2510,
      "environment": 2511,
      "erklärt": 2512,
      "erwerben": 2513,
      "eröffnet": 2514,
      "innovations": 2515,
      "information": 2516,
      "anstrengen": 2517,
      "anwenderfreundlichen": 2518,
      "anpacken": 2519,
      "thought": 2520,
      "through": 2521,
      "itures": 2522,
      "unserer": 2523,
      "asleep": 2524,
      "arcane": 2525,
      "architecture": 2526,
      "automobiles": 2527,
      "totally": 2528,
      "remembered": 2529,
      "refueling": 2530,
      "records": 2531,
      "remainder": 2532,
      "returns": 2533,
      "temperature": 2534,
      "leading": 2535,
      "begeistert": 2536,
      "beurteilen": 2537,
      "bekannt": 2538,
      "beklagen": 2539,
      "beteiligt": 2540,
      "beginnen": 2541,
      "between": 2542,
      "bezahlt": 2543,
      "derzeitigen": 2544,
      "getroffen": 2545,
      "geheimnis": 2546,
      "gedruckt": 2547,
      "gehört": 2548,
      "geflogen": 2549,
      "abgekürzt": 2550,
      "urrekorde": 2551,
      "schöner": 2552,
      "happened": 2553,
      "entwickeln": 2554,
      "transportation": 2555,
      "zusammengerufen": 2556,
      "antwortete": 2557,
      "aufgrund": 2558,
      "aufgeregt": 2559,
      "amortisieren": 2560,
      "amerikanischen": 2561,
      "deutlich": 2562,
      "deflecting": 2563,
      "vermeiden": 2564,
      "verschieben": 2565,
      "announced": 2566,
      "complain": 2567,
      "completely": 2568,
      "commotion": 2569,
      "compensate": 2570,
      "managers": 2571,
      "ausmachen": 2572,
      "celebrate": 2573,
      "shells": 2574,
      "überprüft": 2575,
      "überhaupt": 2576,
      "illustrate": 2577,
      "conservation": 2578,
      "conference": 2579,
      "construct": 2580,
      "connects": 2581,
      "contribution": 2582,
      "ultimativen": 2583,
      "umweltfreundlichen": 2584,
      "address": 2585,
      "lifelong": 2586,
      "nachhaltig": 2587,
      "Beginn": 2588,
      "Beitrag": 2589,
      "Weißen": 2590,
      "Aufhebens": 2591,
      "Ausfahrt": 2592,
      "Erfolg": 2593,
      "Erkenntnis": 2594,
      "Informationsökolog": 2595,
      "Innovationen": 2596,
      "effektiv": 2597,
      "quarterly": 2598,
      "somebody": 2599,
      "ankommt": 2600,
      "Diejenigen": 2601,
      "dazulerne": 2602,
      "expenditures": 2603,
      "sincerely": 2604,
      "Autokolonne": 2605,
      "Ungewöhnliches": 2606,
      "aktualisiere": 2607,
      "aktuelle": 2608,
      "dioxide": 2609,
      "difference": 2610,
      "deshalb": 2611,
      "Programmierer": 2612,
      "Temperaturrekorde": 2613,
      "performance": 2614,
      "perspective": 2615,
      "Gebäude": 2616,
      "Nachrichtenagenturen": 2617,
      "Strandgutsammeln": 2618,
      "buildings": 2619,
      "basteln": 2620,
      "unterhaltsamer": 2621,
      "unternommen": 2622,
      "schnappen": 2623,
      "herausholen": 2624,
      "Bauwesen": 2625,
      "Congratulations": 2626,
      "Transportmittel": 2627,
      "Versetzen": 2628,
      "Wiederholung": 2629,
      "handgeschriebenen": 2630,
      "successes": 2631,
      "sorgfältig": 2632,
      "waitress": 2633,
      "gemieteten": 2634,
      "Umweltschutz": 2635,
      "Abgemacht": 2636,
      "Architektur": 2637,
      "Brennstoffe": 2638,
      "Endverbraucher": 2639,
      "Glückwunsch": 2640,
      "Hybridantrieb": 2641,
      "Jahresleistung": 2642,
      "Kochmütze": 2643,
      "Kritikpunkt": 2644,
      "Muschelschalen": 2645,
      "Phantomschmerz": 2646,
      "Renewables": 2647,
      "Rückspiegel": 2648,
      "konzentrieren": 2649,
      "puzzle": 2650,
      "passiert": 2651,
      "geheimnisvollen": 2652,
      "Informationsökologie": 2653
    },
    "merges": [
      "e n",
      "e r",
      "c h",
      "i n",
      "a n",
      "t h",
      "o n",
      "i e",
      "e s",
      "a t",
      "i s",
      "o r",
      "i t",
      "u n",
      "i ch",
      "a s",
      "a r",
      "o u",
      "th e",
      "a l",
      "a u",
      "t o",
      "e in",
      "r e",
      "t e",
      "an d",
      "l e",
      "i g",
      "o f",
      "s t",
      "i l",
      "in g",
      "b e",
      "e l",
      "un d",
      "d er",
      "i r",
      "o m",
      "g e",
      "a b",
      "e d",
      "n e",
      "y ou",
      "- -",
      "S ie",
      "i on",
      "i m",
      "i c",
      "u r",
      "a ch",
      "i d",
      "s ch",
      "v e",
      "l o",
      "s e",
      "t en",
      "er e",
      "h a",
      "en t",
      "h r",
      "t r",
      "th at",
      "d ie",
      "z u",
      "is t",
      "ein e",
      "a y",
      "n en",
      "g en",
      "o w",
      "w e",
      "h at",
      "w as",
      "w ir",
      "an t",
      "es t",
      "au f",
      "a m",
      "d e",
      "f f",
      "i er",
      "n d",
      "s o",
      "u s",
      "v er",
      "an n",
      "h e",
      "l ich",
      "b er",
      "u t",
      "ou t",
      "I ch",
      "d en",
      "d as",
      "f r",
      "f or",
      "g o",
      "p p",
      "c k",
      "k e",
      "n o",
      "t er",
      "v on",
      "as h",
      "c om",
      "i en",
      "m an",
      "z e",
      "at e",
      "ich t",
      "au s",
      "A nd",
      "f ü",
      "m it",
      "o l",
      "ha ve",
      "b en",
      "c e",
      "l y",
      "s a",
      "v ie",
      "w ar",
      "w hat",
      "or t",
      "T i",
      "c t",
      "s h",
      "w i",
      "ü ber",
      "or e",
      "ar e",
      "il l",
      "ab out",
      "Ti pp",
      "I h",
      "c on",
      "k t",
      "p r",
      "s er",
      "u l",
      "u m",
      "u ch",
      "un g",
      "au r",
      "ion s",
      "Tipp er",
      "I t",
      "a g",
      "a in",
      "l d",
      "m e",
      "s p",
      "ö n",
      "th is",
      "on e",
      "ne u",
      "T h",
      "a d",
      "l i",
      "m ent",
      "n ach",
      "s ich",
      "s el",
      "al l",
      "te d",
      "om e",
      "est aur",
      "fü r",
      "wi th",
      "estaur ant",
      "C O",
      "L e",
      "a h",
      "g r",
      "i v",
      "k ön",
      "l im",
      "m a",
      "n er",
      "s ie",
      "t z",
      "t im",
      "en n",
      "er i",
      "ig en",
      "hr en",
      "ver y",
      "CO 2",
      "B e",
      "N ash",
      "W e",
      "a p",
      "a ge",
      "c ar",
      "d u",
      "d ann",
      "e ch",
      "h en",
      "i ve",
      "m y",
      "m ore",
      "m uch",
      "o p",
      "o th",
      "p l",
      "r estaurant",
      "t on",
      "u st",
      "v il",
      "at ion",
      "un s",
      "ar t",
      "ein en",
      "ge t",
      "ab en",
      "you r",
      "lo g",
      "tr u",
      "ier en",
      "vie l",
      "Ih nen",
      "Nash vil",
      "Nashvil le",
      "A l",
      "A u",
      "A us",
      "D as",
      "E r",
      "I n",
      "P r",
      "R ed",
      "W ir",
      "b on",
      "c an",
      "c ou",
      "e ff",
      "f u",
      "h t",
      "j e",
      "m o",
      "m er",
      "n icht",
      "o s",
      "q u",
      "s ome",
      "v es",
      "w ie",
      "er s",
      "er en",
      "ch en",
      "an k",
      "es s",
      "or y",
      "ou r",
      "ig e",
      "om m",
      "ic e",
      "sch on",
      "ha d",
      "zu m",
      "go ing",
      "one y",
      "kön nen",
      "tim e",
      "! \"",
      ". .",
      "D a",
      "D ie",
      "S h",
      "W ash",
      "a ck",
      "b r",
      "c r",
      "d a",
      "d o",
      "d r",
      "e x",
      "f e",
      "f en",
      "h aben",
      "k ann",
      "l l",
      "m is",
      "m ich",
      "m ir",
      "m eine",
      "o st",
      "s l",
      "s in",
      "s ay",
      "v est",
      "w h",
      "w ay",
      "er n",
      "ch e",
      "it y",
      "un gen",
      "the y",
      "ig eri",
      "ig ht",
      "st ory",
      "ing ton",
      "el l",
      "el t",
      "ne w",
      "ic k",
      "ur ch",
      "lo w",
      "se hr",
      "auf en",
      "am il",
      "das s",
      "no ch",
      "ol l",
      "car bon",
      "Au to",
      "Sh oney",
      "Wash ington",
      "mis s",
      "A ber",
      "B ut",
      "E s",
      "E in",
      "E ff",
      "F or",
      "G ore",
      "M a",
      "N igeri",
      "S t",
      "T he",
      "U n",
      "U nd",
      "a kt",
      "b st",
      "b ack",
      "c lim",
      "d i",
      "d es",
      "d ay",
      "e ct",
      "g re",
      "h n",
      "h in",
      "h al",
      "h ier",
      "j ust",
      "k lich",
      "m ö",
      "m al",
      "m ach",
      "n ur",
      "s te",
      "t al",
      "t ter",
      "u re",
      "w o",
      "w r",
      "w or",
      "w ill",
      "z ur",
      "ü r",
      "ü ck",
      "en d",
      "th en",
      "th ere",
      "on g",
      "es ch",
      "au ch",
      "ein er",
      "re du",
      "ig n",
      "ig es",
      "be i",
      "el y",
      "ne t",
      "lo t",
      "die ser",
      "wir d",
      "de m",
      "fr om",
      "fr ist",
      "go t",
      "sa id",
      "li ke",
      "sel ves",
      "Pr o",
      "Red e",
      "sl id",
      "Auto s",
      "Nigeri a",
      "clim ate",
      "C hr",
      "D i",
      "G esch",
      "J an",
      "K W",
      "L KW",
      "M al",
      "N ow",
      "T e",
      "b o",
      "b al",
      "b ut",
      "c y",
      "c is",
      "c al",
      "c ul",
      "c ost",
      "e as",
      "e very",
      "e ech",
      "e op",
      "g er",
      "g an",
      "g ing",
      "g lo",
      "h er",
      "h an",
      "h ow",
      "i z",
      "i ß",
      "j ed",
      "k l",
      "k n",
      "k ur",
      "k am",
      "k omm",
      "k aufen",
      "l t",
      "l ie",
      "n ight",
      "o k",
      "p er",
      "p le",
      "p ort",
      "p eop",
      "r en",
      "r ie",
      "s on",
      "s am",
      "t re",
      "u g",
      "u p",
      "u ar",
      "v or",
      "w ent",
      "w ant",
      "w enn",
      "w elt",
      "z ä",
      "en ed",
      "er zä",
      "ch te",
      "th ing",
      "ie s",
      "es e",
      "is e",
      "is is",
      "is che",
      "it e",
      "ich te",
      "the m",
      "al s",
      "au se",
      "te il",
      "of f",
      "be en",
      "ab er",
      "ion en",
      "ic ien",
      "id d",
      "id ent",
      "ha be",
      "tr al",
      "eine m",
      "wir klich",
      "lich en",
      "ck s",
      "no t",
      "no log",
      "com e",
      "com es",
      "ien z",
      "icht ig",
      "sh ow",
      "Ih re",
      "pr o",
      "sp eech",
      "neu e",
      "neu tral",
      "sel bst",
      "ma ke",
      "ap it",
      "oth er",
      "tru cks",
      "cou ld",
      "fu hren",
      "os s",
      "cr isis",
      "sin d",
      "tal k",
      "Chr is",
      "Gesch ichte",
      "Jan uar",
      "cal cul",
      "glo bal",
      "iz ienz",
      "kn ow",
      "peop le",
      "erzä h",
      "icien cy",
      "' \"",
      "A n",
      "C ar",
      "E n",
      "E x",
      "E ner",
      "E miss",
      "F l",
      "F r",
      "F amil",
      "G e",
      "G r",
      "H aus",
      "K lim",
      "M an",
      "M on",
      "M ann",
      "N ach",
      "P art",
      "S e",
      "S tr",
      "U S",
      "V ie",
      "Y ou",
      "a ir",
      "a hr",
      "a go",
      "b u",
      "b y",
      "b in",
      "b es",
      "b as",
      "b ar",
      "b ill",
      "c ause",
      "c apit",
      "d ar",
      "d urch",
      "e t",
      "e id",
      "e miss",
      "f t",
      "f re",
      "f amil",
      "g es",
      "g est",
      "g lich",
      "h ar",
      "h ere",
      "h ome",
      "i f",
      "i k",
      "i p",
      "k en",
      "l an",
      "m en",
      "m idd",
      "n ie",
      "o d",
      "o der",
      "p a",
      "p re",
      "p art",
      "p os",
      "r un",
      "s he",
      "s ungen",
      "t s",
      "t un",
      "t sch",
      "u al",
      "u se",
      "u fen",
      "w ä",
      "w er",
      "w ere",
      "w oll",
      "w ichtig",
      "z en",
      "z ieren",
      "z frist",
      "ä s",
      "ö ff",
      "ö sungen",
      "ü n",
      "en s",
      "er t",
      "in k",
      "in vest",
      "an s",
      "th an",
      "th ese",
      "th ink",
      "at or",
      "at ions",
      "is chen",
      "it t",
      "it en",
      "it ten",
      "un ter",
      "un ity",
      "ou ld",
      "al re",
      "al le",
      "al ly",
      "ein iges",
      "re ally",
      "te ll",
      "and eren",
      "le ich",
      "ig t",
      "be cause",
      "el d",
      "el ab",
      "ic a",
      "ic es",
      "ach te",
      "sch n",
      "lo ok",
      "se e",
      "we it",
      "we iß",
      "de cis",
      "ff en",
      "so l",
      "for m",
      "ash ow",
      "ien restaurant",
      "man y",
      "fü hren",
      "sa gen",
      "war en",
      "con s",
      "Th ere",
      "ad y",
      "ah re",
      "iv en",
      "iv ing",
      "tz t",
      "tz ten",
      "pl an",
      "tru e",
      "Aus g",
      "In vest",
      "cou ple",
      "eff ect",
      "mo vie",
      "wie der",
      "our selves",
      ".. .",
      "say ing",
      "wh o",
      "Eff izienz",
      "di re",
      "des ign",
      "hal t",
      "mö chte",
      "ste hen",
      "wor ld",
      "Pro du",
      "slid es",
      "Di ashow",
      "her aus",
      "jed es",
      "kur zfrist",
      "En tsch",
      "Ener g",
      "Emiss ionen",
      "Famil ienrestaurant",
      "bes ser",
      "emiss ions",
      "famil y",
      "gest ern",
      "midd le",
      "pos it",
      "alre ady",
      "elab or",
      "Entsch eid",
      ". \"",
      ". '\"",
      "2 3",
      "4 0",
      "5 0",
      "? \"",
      "A t",
      "A z",
      "A ir",
      "A fr",
      "A ben",
      "A mer",
      "B au",
      "B il",
      "B ere",
      "B ill",
      "C C",
      "C l",
      "C on",
      "C all",
      "D o",
      "D er",
      "D ank",
      "E D",
      "F il",
      "G an",
      "G eld",
      "I m",
      "J o",
      "J ay",
      "L en",
      "L ago",
      "L ösungen",
      "M en",
      "M ay",
      "N o",
      "N ische",
      "R estaurant",
      "R ech",
      "R ufen",
      "S ch",
      "T r",
      "T aur",
      "T enn",
      "T ech",
      "T wo",
      "T ED",
      "U m",
      "V i",
      "V er",
      "V in",
      "V ers",
      "V ice",
      "W er",
      "W ie",
      "W as",
      "W ort",
      "W ah",
      "W elt",
      "a f",
      "a k",
      "a ve",
      "a gen",
      "a de",
      "a pp",
      "a cr",
      "b an",
      "b ig",
      "b us",
      "c ed",
      "c ur",
      "c tr",
      "d s",
      "d on",
      "d ow",
      "d ate",
      "d achte",
      "e p",
      "e le",
      "e il",
      "f o",
      "f in",
      "f le",
      "f ach",
      "f ly",
      "f ul",
      "f eren",
      "f akt",
      "f oss",
      "g h",
      "g t",
      "g y",
      "g in",
      "g at",
      "g te",
      "g ab",
      "g ive",
      "g frist",
      "g ave",
      "h ö",
      "h ie",
      "h re",
      "h and",
      "h ne",
      "h nen",
      "h ol",
      "i b",
      "i der",
      "i hn",
      "j or",
      "k ein",
      "l en",
      "l er",
      "l as",
      "l au",
      "l te",
      "l and",
      "l ant",
      "l ong",
      "l itt",
      "m ing",
      "m us",
      "m ung",
      "m einer",
      "m ely",
      "m per",
      "n is",
      "n te",
      "n ing",
      "n am",
      "n ah",
      "n ice",
      "o se",
      "o ver",
      "o pp",
      "o log",
      "o ices",
      "p t",
      "p ay",
      "p urch",
      "r t",
      "r ich",
      "r ent",
      "r ise",
      "r mung",
      "s u",
      "s en",
      "s or",
      "s ein",
      "s ion",
      "s ign",
      "t t",
      "t in",
      "t te",
      "t ere",
      "t ions",
      "t wo",
      "u e",
      "u te",
      "v om",
      "v id",
      "v ol",
      "v ation",
      "w a",
      "w en",
      "w in",
      "w an",
      "w ed",
      "w ahre",
      "x t",
      "y s",
      "y br",
      "z ie",
      "z el",
      "ß en",
      "ä ch",
      "ö tz",
      "en er",
      "er f",
      "er r",
      "er st",
      "ch ain",
      "ch nolog",
      "ch oices",
      "in to",
      "in ted",
      "in ton",
      "in ves",
      "in ess",
      "in vol",
      "an ge",
      "an sp",
      "an ischen",
      "th er",
      "ie g",
      "es tr",
      "es ident",
      "es see",
      "at es",
      "at al",
      "at ed",
      "at eri",
      "is ten",
      "it r",
      "it ed",
      "ar m",
      "ar n",
      "ar be",
      "ar ted",
      "al so",
      "to m",
      "ein ige",
      "ein fach",
      "re capit",
      "te l",
      "te chnolog",
      "and s",
      "and en",
      "and er",
      "and ere",
      "le icht",
      "le tzten",
      "le arn",
      "of t",
      "of it",
      "st r",
      "st en",
      "st igen",
      "st art",
      "st arted",
      "il es",
      "be tr",
      "be tter",
      "be gan",
      "el n",
      "el s",
      "und lichen",
      "der n",
      "der son",
      "der wä",
      "ge m",
      "ge ben",
      "ab le",
      "ne gat",
      "ne xt",
      "ion ed",
      "im ag",
      "im mer",
      "im port",
      "ic al",
      "ic ity",
      "ic ip",
      "ur ger",
      "ach ten",
      "id e",
      "id en",
      "sch ie",
      "sch lie",
      "sch rie",
      "se ts",
      "ent ert",
      "ist or",
      "gen au",
      "gen den",
      "we il",
      "hat te",
      "de gre",
      "ier ung",
      "so ll",
      "ver stehen",
      "ver sion",
      "he ar",
      "ut zen",
      "fr ien",
      "for e",
      "ke tte",
      "ter m",
      "ze pr",
      "ze ige",
      "ze ug",
      "ze igt",
      "mit ten",
      "ol le",
      "sa h",
      "sa gte",
      "vie le",
      "war ming",
      "ort unity",
      "ct ions",
      "sh ort",
      "sh ould",
      "wi fe",
      "con tin",
      "pr inted",
      "pr ofit",
      "ul ation",
      "um er",
      "uch en",
      "ung ün",
      "me ans",
      "Th is",
      "li fe",
      "ment s",
      "ment ioned",
      "Le ben",
      "Le tter",
      "Le ban",
      "Le ute",
      "gr ate",
      "kön nte",
      "ma de",
      "age ment",
      "car s",
      "op ened",
      "op tions",
      "oth ers",
      "pl ötz",
      "uns ere",
      "viel en",
      "viel leicht",
      "Er derwä",
      "Pr esident",
      "Red u",
      "eff iciency",
      "je tzt",
      "mo t",
      "nicht s",
      "qu estr",
      "Da vid",
      "da für",
      "dr ig",
      "dr iving",
      "ex tre",
      "wh ere",
      "ick en",
      "Ein e",
      "Ein zel",
      "Eff iciency",
      "For d",
      "For ce",
      "Ma i",
      "Ma jor",
      "St ates",
      "The ma",
      "Un ter",
      "Un ited",
      "day s",
      "gre en",
      "mö glich",
      "wr ong",
      "wr itten",
      "zur ück",
      "redu ce",
      "redu zieren",
      "net ten",
      "slid e",
      "climate crisis",
      "Te il",
      "bo oth",
      "eas y",
      "han tom",
      "komm t",
      "komm en",
      "son dern",
      "tre ffen",
      "vor gestern",
      "thing s",
      "off sets",
      "nolog ie",
      "pro je",
      "pro chen",
      "calcul ator",
      "erzäh lte",
      "An derson",
      "Car s",
      "Fl ug",
      "Fr au",
      "Ge win",
      "Gr ad",
      "Klim ak",
      "Mon tere",
      "Nach t",
      "Part icip",
      "Se questr",
      "Str om",
      "US A",
      "Vie le",
      "bu y",
      "bill ige",
      "dar über",
      "et was",
      "fre undlichen",
      "ges prochen",
      "har sh",
      "ken nen",
      "nie drig",
      "pre tt",
      "run ning",
      "woll te",
      "äs ident",
      "look ed",
      "decis ion",
      "cons umer",
      "plan e",
      "Ausg leich",
      "dire kt",
      "Produ ctions",
      "slides how",
      "Energ ien",
      "Familienrestaurant kette",
      "elabor ate",
      "23 8",
      "At lant",
      "Az or",
      "Aben d",
      "Amer ica",
      "Bil der",
      "CC S",
      "Cl inton",
      "Do err",
      "Fil m",
      "Jo hn",
      "Len o",
      "Lago s",
      "Rech ner",
      "Taur us",
      "Tenn essee",
      "Tech nologie",
      "Um welt",
      "Vi zepr",
      "Vin od",
      "Wah l",
      "acr oss",
      "bus iness",
      "cur rent",
      "ctr icity",
      "dow n",
      "ele ctricity",
      "fakt or",
      "gfrist ig",
      "las t",
      "litt le",
      "mper at",
      "opp ortunity",
      "purch as",
      "rich ten",
      "wan ted",
      "ybr id",
      "zie hen",
      "ener gy",
      "inves ted",
      "ansp ort",
      "ateri al",
      "einfach er",
      "imag es",
      "import ant",
      "entert ain",
      "degre es",
      "frien d",
      "ungün stigen",
      "Letter man",
      "Leban on",
      "plötz lich",
      "Erderwä rmung",
      "extre mely",
      "Einzel ne",
      "Major a",
      "Klimak rise",
      "Montere y",
      "Particip ant",
      "prett y",
      "Vizepr äsident",
      "\" '",
      "\" .",
      ", \"",
      "3 1",
      "3 9",
      "A b",
      "A g",
      "A m",
      "A r",
      "A uch",
      "A bst",
      "B o",
      "B r",
      "B u",
      "B ü",
      "B es",
      "B is",
      "B or",
      "B rie",
      "B urger",
      "C E",
      "C ap",
      "D r",
      "D ar",
      "D re",
      "D ann",
      "D urch",
      "E nd",
      "E very",
      "E hre",
      "F re",
      "F ig",
      "F ir",
      "F ol",
      "F ill",
      "F ür",
      "F arm",
      "G 5",
      "G l",
      "G en",
      "H e",
      "H in",
      "H ou",
      "H il",
      "H aben",
      "H ause",
      "H istor",
      "H ybrid",
      "I hr",
      "I sl",
      "I sol",
      "J a",
      "J e",
      "J ust",
      "J ahr",
      "J ahre",
      "K o",
      "K r",
      "K on",
      "K un",
      "K om",
      "K ur",
      "K auf",
      "K ost",
      "K ell",
      "K aufen",
      "K apit",
      "K eil",
      "K atal",
      "K olle",
      "L u",
      "L an",
      "L ow",
      "L icht",
      "L age",
      "L isten",
      "M u",
      "M y",
      "M ö",
      "M it",
      "M as",
      "M eine",
      "M ost",
      "M itten",
      "M eil",
      "M aterial",
      "N or",
      "N ex",
      "N utzen",
      "O K",
      "O ne",
      "O ver",
      "O ffen",
      "O ther",
      "P a",
      "P ut",
      "P ap",
      "P omm",
      "P ick",
      "P hantom",
      "R e",
      "R en",
      "R est",
      "R oll",
      "R ück",
      "S o",
      "S he",
      "S tim",
      "S log",
      "S pa",
      "S uchen",
      "T aus",
      "T ag",
      "T age",
      "T ür",
      "T agen",
      "U p",
      "U se",
      "V or",
      "V ort",
      "W h",
      "W it",
      "W and",
      "W hat",
      "W enn",
      "Y es",
      "Z e",
      "Z u",
      "Z un",
      "a c",
      "a il",
      "a ff",
      "a ver",
      "a ke",
      "a ce",
      "a ct",
      "a hren",
      "a way",
      "b ä",
      "b is",
      "b it",
      "b un",
      "b ing",
      "b ere",
      "b are",
      "b ad",
      "b low",
      "b iles",
      "b urger",
      "c c",
      "c l",
      "c er",
      "c or",
      "c it",
      "c am",
      "c us",
      "c ien",
      "c ted",
      "c ern",
      "c ity",
      "c ade",
      "c olog",
      "c atal",
      "c olle",
      "d y",
      "d in",
      "d an",
      "d ing",
      "d ge",
      "d ur",
      "d ten",
      "d den",
      "d one",
      "d ah",
      "d ank",
      "d ür",
      "d ated",
      "e g",
      "e w",
      "e at",
      "e ar",
      "e ig",
      "e ach",
      "e ten",
      "e ver",
      "e ben",
      "e kt",
      "e igen",
      "e ight",
      "e colog",
      "f ä",
      "f ie",
      "f al",
      "f el",
      "f lo",
      "f he",
      "f ol",
      "f ive",
      "f log",
      "f our",
      "f ell",
      "f lie",
      "f ahr",
      "f eld",
      "f arm",
      "f anden",
      "g ar",
      "g il",
      "g ere",
      "g ann",
      "g ut",
      "g ht",
      "g esch",
      "g iven",
      "g ib",
      "g lau",
      "g fä",
      "h ä",
      "h on",
      "h is",
      "h it",
      "h as",
      "h au",
      "h el",
      "h ab",
      "h men",
      "h istor",
      "h ybrid",
      "i re",
      "i le",
      "i ere",
      "i hr",
      "i he",
      "i but",
      "i hre",
      "i hnen",
      "j a",
      "j u",
      "j en",
      "k in",
      "k on",
      "k or",
      "k te",
      "k ing",
      "k ten",
      "k eine",
      "k ol",
      "k ill",
      "k enn",
      "k ungen",
      "k ür",
      "k ely",
      "k idd",
      "k olog",
      "k anischen",
      "k zeug",
      "l es",
      "l at",
      "l ten",
      "l age",
      "l ess",
      "l ight",
      "l aufen",
      "l äs",
      "l achten",
      "m ü",
      "m in",
      "m on",
      "m ein",
      "m ay",
      "m ier",
      "m ber",
      "m ain",
      "m oney",
      "m unity",
      "m anden",
      "m start",
      "m iles",
      "m eln",
      "m aterial",
      "n f",
      "n s",
      "n un",
      "n ung",
      "n omm",
      "n igeri",
      "n äch",
      "n genden",
      "n utzen",
      "n faktor",
      "o b",
      "o x",
      "o es",
      "o un",
      "o te",
      "o gen",
      "o ice",
      "o ts",
      "o hne",
      "o ßen",
      "p u",
      "p ie",
      "p un",
      "p as",
      "p ic",
      "p ut",
      "p ain",
      "p ap",
      "p ers",
      "p ack",
      "p oll",
      "p end",
      "p ens",
      "p hantom",
      "r or",
      "r ou",
      "r ein",
      "r ate",
      "r icht",
      "r ap",
      "r ieren",
      "r ichtig",
      "r ange",
      "r ail",
      "s at",
      "s to",
      "s eine",
      "s ier",
      "s icht",
      "s pr",
      "s uch",
      "s ust",
      "s end",
      "s ider",
      "s oft",
      "s ulation",
      "s cien",
      "t w",
      "t ar",
      "t il",
      "t ur",
      "t we",
      "t ze",
      "t ank",
      "t ure",
      "t nis",
      "t ide",
      "t ake",
      "u en",
      "u it",
      "u ing",
      "u el",
      "u de",
      "u he",
      "u ck",
      "u ct",
      "u ern",
      "v is",
      "v ing",
      "v ir",
      "v ed",
      "v ier",
      "v ice",
      "v oll",
      "v ened",
      "v ations",
      "v ices",
      "v els",
      "v oice",
      "w ö",
      "w es",
      "w un",
      "w of",
      "w ach",
      "w he",
      "w ell",
      "w ick",
      "w ahr",
      "w ischen",
      "w ould",
      "w achte",
      "y st",
      "y est",
      "y ell",
      "y et",
      "y ear",
      "z t",
      "z z",
      "z ent",
      "z we",
      "z war",
      "z ah",
      "z ogen",
      "z wischen",
      "ß lich",
      "ß eren",
      "ä ter",
      "ä rt",
      "ä dten",
      "ö st",
      "ö kolog",
      "ö ßeren",
      "ü ft",
      "en able",
      "en faktor",
      "en vir",
      "er ed",
      "er day",
      "er hin",
      "er kl",
      "er wer",
      "er öff",
      "er bare",
      "ch er",
      "ch it",
      "ch ten",
      "ch nen",
      "ch ite",
      "ch ange",
      "ch mü",
      "ch nung",
      "in no",
      "in form",
      "an st",
      "an tr",
      "an other",
      "an wen",
      "an pack",
      "th ou",
      "th ank",
      "th ose",
      "th rou",
      "on ne",
      "on ment",
      "ie b",
      "ie te",
      "es h",
      "es le",
      "at ul",
      "at iven",
      "is ieren",
      "is iere",
      "or der",
      "or cade",
      "it er",
      "it ur",
      "it igen",
      "it ers",
      "it ionen",
      "it ik",
      "un ser",
      "un til",
      "ich en",
      "as le",
      "ar en",
      "ar ed",
      "ar ter",
      "ar can",
      "ar ds",
      "ar chit",
      "the ir",
      "al en",
      "al ösungen",
      "au er",
      "au to",
      "au ben",
      "au chen",
      "to ld",
      "to tal",
      "to ok",
      "to pic",
      "ein s",
      "ein lich",
      "ein igen",
      "ein kaufen",
      "re e",
      "re ar",
      "re den",
      "re me",
      "re fu",
      "re chen",
      "re port",
      "re cor",
      "re kor",
      "re main",
      "re tur",
      "re chten",
      "te te",
      "te ly",
      "te grate",
      "te mperat",
      "and ing",
      "and gut",
      "and ards",
      "le ad",
      "le br",
      "le tter",
      "le chte",
      "le ft",
      "le vels",
      "ig er",
      "ig te",
      "of fen",
      "st age",
      "st ands",
      "st aff",
      "st andards",
      "il ding",
      "be ge",
      "be im",
      "be ur",
      "be ach",
      "be kann",
      "be kl",
      "be kam",
      "be vor",
      "be teil",
      "be come",
      "be gin",
      "be iden",
      "be fore",
      "be gann",
      "be twe",
      "be zah",
      "el te",
      "el ing",
      "el sch",
      "und s",
      "und en",
      "und er",
      "und lage",
      "der ze",
      "der hol",
      "der freundlichen",
      "ge tr",
      "ge gen",
      "ge he",
      "ge hen",
      "ge dr",
      "ge mach",
      "ge hö",
      "ge geben",
      "ge zeigt",
      "ge flo",
      "ge kür",
      "ge wö",
      "ge zogen",
      "ab ly",
      "ab les",
      "ab gekür",
      "ne te",
      "ne ed",
      "ne ben",
      "ne ct",
      "ne hmen",
      "im al",
      "im nis",
      "ic ant",
      "ur en",
      "ur rekor",
      "ach t",
      "id ly",
      "sch en",
      "sch au",
      "sch ut",
      "sch ön",
      "sch mer",
      "sch wer",
      "sch einlich",
      "sch lechte",
      "sch elsch",
      "ve ment",
      "lo ve",
      "lo hnen",
      "se t",
      "se tz",
      "se hen",
      "se tzten",
      "ha pp",
      "ha fen",
      "ent lich",
      "ent lichen",
      "ent wick",
      "ent uren",
      "ent lohnen",
      "tr af",
      "tr ansport",
      "tr ibut",
      "die se",
      "zu sam",
      "zu ler",
      "ist ung",
      "ist ert",
      "we ise",
      "we gem",
      "hat ten",
      "wir kungen",
      "ant wor",
      "auf gr",
      "auf gere",
      "am ort",
      "am eri",
      "am mier",
      "de t",
      "de al",
      "de ut",
      "de fle",
      "ff e",
      "ff eren",
      "ier ten",
      "so il",
      "so unds",
      "us ual",
      "ver me",
      "ver br",
      "ver schie",
      "ann ual",
      "ann oun",
      "he iten",
      "lich es",
      "ut ion",
      "ut ions",
      "den kt",
      "fr ies",
      "fr ische",
      "fr uit",
      "fr esh",
      "for man",
      "for mer",
      "go od",
      "ck ed",
      "ke hr",
      "ke iten",
      "no vation",
      "com ing",
      "com pl",
      "com ple",
      "com ments",
      "com mot",
      "com bing",
      "com munity",
      "com pens",
      "man ag",
      "man agement",
      "ze igen",
      "ze ichen",
      "ze igte",
      "aus mach",
      "aus kennen",
      "aus ziehen",
      "aus gezogen",
      "fü ge",
      "fü nf",
      "mit tel",
      "ben s",
      "ben en",
      "ce pt",
      "ce lebr",
      "sa fe",
      "sa ßen",
      "vie w",
      "war e",
      "war ten",
      "ct ing",
      "ct ion",
      "ct ly",
      "sh ell",
      "sh oes",
      "sh ared",
      "wi re",
      "über pr",
      "über all",
      "über hau",
      "ill ust",
      "Tipp s",
      "con ser",
      "con feren",
      "con str",
      "con cern",
      "con vened",
      "con nect",
      "con tribut",
      "kt ion",
      "kt ur",
      "ser ies",
      "ser vices",
      "ul ate",
      "ul tim",
      "ul ieren",
      "um welt",
      "ag t",
      "ag er",
      "ag ain",
      "ag ue",
      "ag enturen",
      "ain ably",
      "me isten",
      "sp ect",
      "sp ieg",
      "sp äter",
      "sp aren",
      "sp rechen",
      "ön lichen",
      "neu en",
      "neu es",
      "neu erbare",
      "Th en",
      "Th ank",
      "Th ese",
      "Th ose",
      "Th ree",
      "ad d",
      "ad dr",
      "ad vice",
      "li ve",
      "li fel",
      "li kely",
      "ment are",
      "nach dem",
      "nach halt",
      "nach richten",
      "sich ere",
      "sel f",
      "all en",
      "Le hren",
      "gr ow",
      "gr ün",
      "gr oßen",
      "gr ößeren",
      "gr atul",
      "gr ammier",
      "lim b",
      "ma king",
      "ner in",
      "ner time",
      "enn sto",
      "Be i",
      "Be vor",
      "Be come",
      "Be gin",
      "Be itr",
      "Be fore",
      "Be ziehen",
      "We g",
      "We iß",
      "We ise",
      "my self",
      "pl us",
      "pl ace",
      "get an",
      "your selves",
      "tru ly",
      "Au fhe",
      "Aus sagen",
      "Aus fahr",
      "Aus schau",
      "Aus wirkungen",
      "Er st",
      "Er fol",
      "Er kenn",
      "Er neuerbare",
      "In form",
      "In sulation",
      "In tegrate",
      "In novation",
      "Wir klich",
      "eff izienz",
      "eff ekt",
      "fu hr",
      "fu els",
      "je der",
      "je manden",
      "je ktion",
      "mo st",
      "mo biles",
      "qu ick",
      "qu ite",
      "qu ire",
      "qu ote",
      "qu arter",
      "some bo",
      "ank omm",
      "ess en",
      "ess es",
      "Da von",
      "Die se",
      "Die jen",
      "br auchen",
      "br anding",
      "da zuler",
      "do or",
      "ex it",
      "ex pend",
      "ex cept",
      "mir ror",
      "meine m",
      "sin ce",
      "sin cer",
      "wh ite",
      "ern st",
      "che f",
      "che cked",
      "ell er",
      "new s",
      "low est",
      "low ered",
      "Auto kol",
      "For mer",
      "Ma ke",
      "St ory",
      "St ück",
      "St ädten",
      "Un gewö",
      "akt ual",
      "akt iven",
      "akt uel",
      "di ox",
      "di fferen",
      "des hal",
      "ect ure",
      "gre at",
      "hn liches",
      "hin zu",
      "hin aus",
      "hal ten",
      "mach e",
      "mach te",
      "mach ten",
      "ste uern",
      "wo ke",
      "wr iters",
      "wor den",
      "ück wun",
      "auch er",
      "redu ced",
      "Pro grammier",
      "Pro jektion",
      "Di as",
      "Te ach",
      "Te mperat",
      "bo ots",
      "cis ely",
      "eas t",
      "eas ier",
      "every thing",
      "ger ufen",
      "ger ade",
      "gan z",
      "gan ze",
      "ging en",
      "han ging",
      "han ies",
      "jed e",
      "kl einen",
      "kl icken",
      "kur ze",
      "kam en",
      "lt ig",
      "lie gt",
      "night s",
      "per forman",
      "per spect",
      "ren nen",
      "ren gen",
      "ren ted",
      "rie benen",
      "sam e",
      "sam er",
      "sam meln",
      "up date",
      "up dated",
      "up set",
      "welt weit",
      "them selves",
      "teil en",
      "teil weise",
      "show s",
      "Ihre m",
      "neutral es",
      "talk ed",
      "Januar y",
      "Januar ys",
      "calcul ate",
      "calcul ation",
      "global e",
      "erzäh le",
      "erzäh lt",
      "An teil",
      "Car bon",
      "Ex it",
      "Fl ut",
      "Fr age",
      "Ge bä",
      "Gr undlage",
      "Klim alösungen",
      "Man y",
      "Man agement",
      "Man ager",
      "Mon at",
      "Nach richten",
      "Part ner",
      "Se hen",
      "Str andgut",
      "Vie len",
      "air port",
      "air plane",
      "bu ilding",
      "bas is",
      "bas ed",
      "bas tel",
      "bar er",
      "bar ungen",
      "bill iges",
      "capit al",
      "dar an",
      "durch gehen",
      "durch klicken",
      "fre uen",
      "ges agt",
      "glich keiten",
      "har d",
      "if icant",
      "ik a",
      "ip hanies",
      "lan g",
      "lan gen",
      "lan gfristig",
      "men gerufen",
      "pa th",
      "pa id",
      "pre cisely",
      "part ly",
      "part ner",
      "run way",
      "wä re",
      "wer de",
      "woll en",
      "öff nete",
      "öff entlichen",
      "ens ure",
      "invest ieren",
      "invest ments",
      "invest ierten",
      "think ing",
      "ations ökolog",
      "unter halt",
      "unter nomm",
      "alle m",
      "tell ing",
      "tell ung",
      "leich ter",
      "schn itt",
      "schn app",
      "schn eller",
      "look ing",
      "weit ere",
      "weit erhin",
      "weiß en",
      "decis ions",
      "sol cher",
      "sol utions",
      "form ulieren",
      "führen den",
      "cons ider",
      "Ausg aben",
      "Invest ieren",
      "Invest itionen",
      "effect ive",
      "dire ctly",
      "halt ung",
      "Produ kten",
      "heraus hol",
      "heraus gegeben",
      "kurzfrist igen",
      "kurzfrist ige",
      "kurzfrist iges",
      "Energ ie",
      "besser en",
      "besser es",
      "posit ion",
      "posit iv",
      "posit ive",
      "elabor ated",
      "Entscheid en",
      "Entscheid ung",
      "Entscheid ungen",
      "Afr ica",
      "Afr ika",
      "Bau design",
      "Bau wes",
      "Bere ich",
      "Bere chnung",
      "Con sider",
      "Con gratul",
      "Gan z",
      "Gan zen",
      "Men ge",
      "Men schen",
      "No t",
      "No ch",
      "Sch icken",
      "Sch uhe",
      "Tr ansport",
      "Tr auben",
      "Ver setz",
      "Ver kehr",
      "Vers ion",
      "Vers uchen",
      "Wer den",
      "Wer kzeug",
      "Wie derhol",
      "af ter",
      "ep iphanies",
      "fo und",
      "fo cus",
      "fin d",
      "fin det",
      "fle w",
      "ful l",
      "feren z",
      "foss il",
      "foss ile",
      "gh ed",
      "hö ren",
      "hie lt",
      "hie lten",
      "hand written",
      "hand gesch",
      "ib le",
      "len ken",
      "ler nen",
      "lau ghed",
      "land ed",
      "land eten",
      "mus s",
      "mus ste",
      "nam ed",
      "nam ens",
      "nah m",
      "nah me",
      "su cc",
      "su dden",
      "sen kte",
      "sor gen",
      "sor gfä",
      "sein heiten",
      "sign ificant",
      "wa itr",
      "wa ving",
      "wen iger",
      "wed ge",
      "wed elte",
      "ys ator",
      "äch st",
      "erf ahren",
      "erf unden",
      "invol ved",
      "invol vement",
      "arbe iten",
      "arbe iter",
      "recapit ulation",
      "recapit ulate",
      "technolog y",
      "technolog ical",
      "ander er",
      "ander es",
      "str ain",
      "betr at",
      "betr achten",
      "gem iete",
      "negat iv",
      "negat ive",
      "schie f",
      "schlie f",
      "schlie ßlich",
      "schrie b",
      "soll te",
      "soll ten",
      "hear d",
      "contin ue",
      "contin uing",
      "profit able",
      "grate ful",
      "unsere m",
      "Redu ce",
      "Redu zieren",
      "mot orcade",
      "Unter nehmen",
      "Unter haltung",
      "möglich e",
      "möglich st",
      "zurück kommen",
      "Teil nahme",
      "proje cted",
      "proje ction",
      "Flug zeug",
      "Flug hafen",
      "Gewin nen",
      "Gewin nfaktor",
      "Sequestr ation",
      "Sequestr ierung",
      "niedrig sten",
      "Ausgleich seinheiten",
      "Atlant ic",
      "Atlant ik",
      "Azor en",
      "Azor es",
      "Abend essen",
      "Film version",
      "Technologie effizienz",
      "Umwelt schut",
      "Umwelt nachrichten",
      "purchas e",
      "purchas es",
      "entertain ing",
      "entertain ment",
      "friend ly",
      "Ab gemach",
      "Ag ain",
      "Ar chite",
      "Abst ieg",
      "Bo den",
      "Br ennsto",
      "Bu y",
      "Bü hne",
      "Bes tellung",
      "Bor d",
      "Brie f",
      "CE O",
      "Cap ture",
      "Dr iving",
      "Dar über",
      "Dre i",
      "Durch schnitt",
      "End verbr",
      "Fre und",
      "Fig ure",
      "Fir st",
      "Fol genden",
      "Fill mstart",
      "Gl ückwun",
      "Gen auer",
      "Hin ter",
      "Hou se",
      "Hil fe",
      "Histor ical",
      "Hybrid antr",
      "Isl ands",
      "Isol ierung",
      "Je tzt",
      "Jahr esle",
      "Ko chmü",
      "Kr itik",
      "Kon ferenz",
      "Kun st",
      "Kom mentare",
      "Kur z",
      "Kost enfaktor",
      "Kell nerin",
      "Kapit al",
      "Katal ysator",
      "Kolle gen",
      "Lu ft",
      "Lan gfristig",
      "Mu schelsch",
      "Mö glichkeiten",
      "Mit arbeiter",
      "Mas se",
      "Meil en",
      "Nor men",
      "Nex t",
      "Offen barungen",
      "Pa ar",
      "Pap ier",
      "Pomm es",
      "Phantom schmer",
      "Re ihe",
      "Ren ew",
      "Roll feld",
      "Rück spieg",
      "So on",
      "Stim me",
      "Slog ans",
      "Spa ß",
      "Taus end",
      "Up date",
      "Vor zeichen",
      "Vort ag",
      "Wh ite",
      "Wit ze",
      "Wand el",
      "Ze it",
      "Zun ächst",
      "ac quire",
      "aver age",
      "act ive",
      "bun ch",
      "bere chnen",
      "blow n",
      "cl ick",
      "cit ies",
      "cam e",
      "catal yst",
      "colle ague",
      "din nertime",
      "dan ke",
      "dur ing",
      "dah er",
      "dank bar",
      "dür fen",
      "eg al",
      "eig entlich",
      "eben so",
      "eigen en",
      "ecolog y",
      "fie l",
      "fal sch",
      "flie gen",
      "gil t",
      "gib t",
      "glau ben",
      "hä ngenden",
      "hon or",
      "has n",
      "hel p",
      "hab it",
      "histor ische",
      "ihr er",
      "ju dge",
      "kin d",
      "kon zent",
      "kill er",
      "kidd ing",
      "lat er",
      "läs st",
      "min us",
      "mon th",
      "may be",
      "mber ed",
      "nigeri anischen",
      "näch sten",
      "ohne hin",
      "pu zz",
      "pie ce",
      "pun kt",
      "pas sier",
      "pap er",
      "pers önlichen",
      "poll ution",
      "richt igen",
      "rap idly",
      "sicht barer",
      "spr ach",
      "such ten",
      "sust ainably",
      "send ing",
      "soft ware",
      "scien ce",
      "tw ice",
      "tar get",
      "tank en",
      "uck t",
      "vis ible",
      "voll en",
      "wof ür",
      "wach sen",
      "whe ther",
      "wahr scheinlich",
      "yest erday",
      "yell ing",
      "year s",
      "zwe imal",
      "öst lich",
      "envir onment",
      "erkl ärt",
      "erwer ben",
      "eröff net",
      "inno vations",
      "inform ation",
      "anst rengen",
      "anwen derfreundlichen",
      "anpack en",
      "thou ght",
      "throu gh",
      "itur es",
      "unser er",
      "asle ep",
      "arcan e",
      "archit ecture",
      "auto mobiles",
      "total ly",
      "reme mbered",
      "refu eling",
      "recor ds",
      "remain der",
      "retur ns",
      "temperat ure",
      "lead ing",
      "bege istert",
      "beur teilen",
      "bekann t",
      "bekl agen",
      "beteil igt",
      "begin nen",
      "betwe en",
      "bezah lt",
      "derze itigen",
      "getr offen",
      "gehe imnis",
      "gedr uckt",
      "gehö rt",
      "geflo gen",
      "abgekür zt",
      "urrekor de",
      "schön er",
      "happ ened",
      "entwick eln",
      "transport ation",
      "zusam mengerufen",
      "antwor tete",
      "aufgr und",
      "aufgere gt",
      "amort isieren",
      "ameri kanischen",
      "deut lich",
      "defle cting",
      "verme iden",
      "verschie ben",
      "announ ced",
      "compl ain",
      "comple tely",
      "commot ion",
      "compens ate",
      "manag ers",
      "ausmach en",
      "celebr ate",
      "shell s",
      "überpr üft",
      "überhau pt",
      "illust rate",
      "conser vation",
      "conferen ce",
      "constr uct",
      "connect s",
      "contribut ion",
      "ultim ativen",
      "umwelt freundlichen",
      "addr ess",
      "lifel ong",
      "nachhalt ig",
      "Begin n",
      "Beitr ag",
      "Weiß en",
      "Aufhe bens",
      "Ausfahr t",
      "Erfol g",
      "Erkenn tnis",
      "Inform ationsökolog",
      "Innovation en",
      "effekt iv",
      "quarter ly",
      "somebo dy",
      "ankomm t",
      "Diejen igen",
      "dazuler ne",
      "expend itures",
      "sincer ely",
      "Autokol onne",
      "Ungewö hnliches",
      "aktual isiere",
      "aktuel le",
      "diox ide",
      "differen ce",
      "deshal b",
      "Programmier er",
      "Temperat urrekorde",
      "performan ce",
      "perspect ive",
      "Gebä ude",
      "Nachrichten agenturen",
      "Strandgut sammeln",
      "building s",
      "bastel n",
      "unterhalt samer",
      "unternomm en",
      "schnapp en",
      "heraushol en",
      "Bauwes en",
      "Congratul ations",
      "Transport mittel",
      "Versetz en",
      "Wiederhol ung",
      "handgesch riebenen",
      "succ esses",
      "sorgfä ltig",
      "waitr ess",
      "gemiete ten",
      "Umweltschut z",
      "Abgemach t",
      "Archite ktur",
      "Brennsto ffe",
      "Endverbr aucher",
      "Glückwun sch",
      "Hybridantr ieb",
      "Jahresle istung",
      "Kochmü tze",
      "Kritik punkt",
      "Muschelsch alen",
      "Phantomschmer z",
      "Renew ables",
      "Rückspieg el",
      "konzent rieren",
      "puzz le",
      "passier t",
      "geheimnis vollen",
      "Informationsökolog ie"
    ]
  }
}